[PAD]
[UNK]
[CLS]
[SEP]
[MASK]
!
"
#
$
%
&
'
(
)
*
+
,
-
.
/
0
1
2
3
4
5
6
7
8
9
:
;
<
=
>
?
@
[
\
]
^
_
`
a
b
c
d
e
f
g
h
i
j
k
l
m
n
o
p
q
r
s
t
u
v
w
x
y
z
{
|
}
~
¡
¢
£
¤
¥
¦
§
¨
©
ª
«
¬
¯
°
±
²
³
´
µ
¶
·
¸
¹
º
»
¼
½
¾
¿
×
ß
æ
ð
÷
ø
þ
ı
ł
œ
ƒ
ˆ
ˇ
˘
˙
˚
˛
˜
˝
α
β
δ
μ
ν
ρ
σ
ω
ᄀ
ᄁ
ᄂ
ᄃ
ᄄ
ᄅ
ᄆ
ᄇ
ᄈ
ᄉ
ᄊ
ᄋ
ᄌ
ᄍ
ᄎ
ᄏ
ᄐ
ᄑ
ᄒ
ᅡ
ᅢ
ᅣ
ᅤ
ᅥ
ᅦ
ᅧ
ᅨ
ᅩ
ᅪ
ᅫ
ᅬ
ᅭ
ᅮ
ᅯ
ᅰ
ᅱ
ᅲ
ᅳ
ᅴ
ᅵ
ᆞ
ᆨ
ᆩ
ᆪ
ᆫ
ᆬ
ᆭ
ᆮ
ᆯ
ᆰ
ᆱ
ᆲ
ᆴ
ᆶ
ᆷ
ᆸ
ᆹ
ᆺ
ᆻ
ᆼ
ᆽ
ᆾ
ᆿ
ᇀ
ᇁ
ᇂ
‐
–
—
―
‘
’
‚
‛
“
”
„
†
‡
•
․
…
‧
‰
′
‹
›
※
⁄
₩
€
℃
ⅰ
ⅱ
ⅲ
ⅳ
ⅴ
ⅵ
←
↑
→
↓
↔
↕
↗
↘
⇒
∆
∑
−
∙
√
∞
∼
≒
≤
≥
≪
≫
⊙
⋯
①
②
③
④
⑤
⑥
⑦
⑧
⑨
⑩
⑪
⑫
⑬
⑴
⑵
⑶
ⓐ
ⓑ
ⓒ
ⓓ
ⓔ
ⓕ
ⓖ
ⓗ
ⓘ
│
┃
▌
▐
■
□
▣
▩
▪
▬
▲
△
▶
▷
►
▼
▽
◀
◆
◇
◈
◊
○
◎
●
★
☆
☎
☞
❶
❷
❸
❹
❺
❻
❼
➢
、
。
々
「
」
『
』
あ
い
う
え
か
き
く
け
こ
し
す
た
っ
つ
て
と
な
に
の
は
へ
ま
み
め
も
や
ら
る
れ
わ
を
イ
カ
キ
ク
シ
ス
タ
ッ
テ
ニ
ネ
フ
ヘ
マ
ム
メ
モ
ャ
ラ
リ
レ
ロ
ン
・
ー
ㄱ
ㄴ
ㅇ
ㅈ
ㅊ
ㅋ
ㅎ
ㅐ
ㅣ
ㆍ
㈜
㎍
㎞
㎡
㎢
㎥
一
万
三
上
下
不
与
东
个
中
为
主
么
义
之
乙
九
也
乱
亂
了
予
事
于
云
五
亚
些
亞
交
京
人
什
今
付
代
以
们
企
伊
伏
休
会
但
位
低
佛
作
使
來
例
価
保
信
修
借
値
债
假
做
傭
傲
債
働
像
價
優
元
兆
先
光
內
全
兩
八
公
共
兵
再
军
冥
决
出
分
则
利
到
制
券
前
力
加
动
势
動
務
勢
化
北
匙
医
十
千
半
华
協
南
印
危
原
去
叉
及
友
反
发
受
只
可
台
右
司
各
合
吉
同
向
含
吳
告
周
味
命
和
品
哨
商
問
善
営
四
回
因
围
国
國
圖
在
场
基
報
境
增
外
多
够
夢
大
天
太
失
头
夷
好
如
威
子
存
季
它
安
官
定
实
実
家
密
富
實
对
导
将
將
對
小
少
就
尹
尼
局
展
山
岐
岛
峰
川
州
左
差
己
帶
常
年
床
应
底
度
康
建
式
引
弗
弱
弹
强
彊
当
影
彼
待
很
律
後
徐
得
御
復
循
德
心
必
态
怕
性
总
恐
恶
患
情
惡
想
意
愚
感
態
慢
慾
憂
應
成
我
戒
或
战
戰
所
手
承
报
拡
持
指
挑
损
控
擊
操
支
改
政
数
整
敵
断
新
方
无
旣
日
旦
时
昇
明
星
春
是
显
時
景
暗
最
會
月
有
望
朝
期
木
末
本
术
权
李
材
杞
杯
東
林
果
栄
株
样
桂
案
梨
棋
検
楚
業
榮
構
樂
標
機
止
正
此
步
死
母
比
民
気
水
求
汇
決
没
油
治
法
波
流
海
消
涉
淸
清
渐
減
渡
源
準
演
潜
潮
激
濟
火
炭
炮
点
烏
無
煤
照
爭
物
特
状
猶
獨
率
玉
王
现
現
環
生
産
用
田
甲
界
略
異
疼
發
百
的
盈
盡
目
相
省
看
眞
着
短
石
破
硏
确
碁
確
示
社
祈
神
种
称
移
稅
程
税
穩
突
立
竹
第
等
策
算
篇
粧
系
紅
紙
素
紧
終
経
結
給
統
經
継
続
維
総
線
緩
績
约
统
署
羅
羊
美
考
者
而
背
能
脚
自
與
舊
色
花
英
范
萨
萬
落
蒙
藥
號
融
行
表
裁
要
見
視
親
観
觀
视
解
言
註
說
調
談
論
證
變
认
讨
让
论
证
评
话
说
豫
負
財
貸
費
資
質
走
起
超
越
足
路
踏
車
軍
輸
轉
轍
辭
迎
返
这
进
远
迷
退
送
逆
逐
通
速
造
進
運
過
道
適
選
那
邦
部
都
里
重
野
量
金
針
銀
錘
针
钢
長
間
问
间
防
阻
阿
限
除
集
難
雨
雪
雲
電
需
震
霜
靑
靜
非
面
革
韓
韩
響
頂
頃
順
頭
须
题
飛
食
飯
餘
首
馬
駁
验
骨
高
鬪
鮮
鲜
鷄
ﬂ
＄
％
（
）
，
：
ｂ
ｃ
ｅ
ｋ
ｓ
ｘ
～
｣
･
￡
￥
￦
##ᅡ
##ᄋ
##ᅲ
##ᄅ
##ᅩ
##ᆸ
##ᄌ
##ᅵ
##ᄆ
##ᆫ
##ᄉ
##ᆼ
##ᅳ
##ᅦ
##ᆷ
##ᄇ
##ᅥ
##ᆨ
##ᄑ
##ᅧ
##ᆯ
##ᄂ
##ᄀ
##ᅮ
##ᅢ
##0
##3
##6
##4
##ᅯ
##ᅭ
##ᅣ
##ᄃ
##e
##u
##ᄒ
##ᅨ
##ᅴ
##b
##t
##2
##1
##7
##ᅪ
##8
##ᅱ
##ᄎ
##ᄏ
##s
##c
##j
##ᄐ
##5
##p
##ᄁ
##9
##f
##ᆩ
##d
##z
##a
##r
##ᅬ
##ᄊ
##o
##m
##ᆻ
##l
##ᄍ
##ᅫ
##€
##ᆺ
##w
##g
##h
##k
##i
##n
##ᆹ
##y
##ᄄ
##■
##q
##ᆾ
##x
##v
##➢
##ᆪ
##ᆶ
##ᆽ
##ᇂ
##▶
##⇒
##㈜
##ᆰ
##ᅤ
##ᇁ
##ᅰ
##ᆮ
##ᆭ
##£
##④
##│
##ⅲ
##◎
##ᇀ
##˛
##²
##★
##→
##ᆱ
##☞
##ᆲ
##ᄈ
##∙
##②
##þ
##￡
##●
##↑
##¥
##⑴
##て
##い
##く
##め
##と
##æ
##は
##ø
##ł
##↗
##³
##¢
##か
##な
##や
##ı
##ᆬ
##③
##ⅰ
##ƒ
##ﬂ
##↓
##㎞
##ß
##œ
##ｃ
##▣
##×
##►
##⑧
##▐
##ⅱ
##¾
##˜
##ª
##る
##ま
##え
##①
##☎
##ν
##け
##に
##ㅋ
##ᆞ
##∼
##▪
##ㆍ
##≫
##⑦
##←
##σ
##−
##¹
##≤
##´
##⑶
##˚
##≥
##©
##¸
##±
##º
##▲
##ㅣ
##↔
##￥
##㎡
##☆
##⑤
##ᆿ
##ㅊ
##°
##⁄
##￦
##ネ
##タ
##リ
##マ
##ー
##ⅳ
##¬
##¼
##℃
##こ
##½
##⑨
##÷
##µ
##ャ
##ッ
##フ
##キ
##ラ
##ス
##の
##ᆴ
##っ
##⑵
##ⓐ
##˘
##◇
##¦
##わ
##ˇ
##ら
##れ
##⑥
##ⅴ
##す
##も
##¯
##△
##ⓕ
##ⅵ
##き
##あ
##ㄴ
##つ
##し
##ⓑ
##˙
##⑬
##□
##ｅ
##ｂ
##↘
##˝
##¨
##ⓓ
##㎢
##ⓗ
##▽
##ク
##ロ
##た
##を
##う
##▼
##テ
##ム
##シ
##ð
##μ
##イ
##¤
##ㅈ
##～
##ˆ
##∆
##ヘ
##ⓘ
##モ
##メ
##ン
##ㅇ
##❹
##ⓔ
##み
##々
##ㅎ
##ㄱ
##レ
##ｓ
##へ
##⑩
##カ
##ニ
##┃
##❷
##○
##❺
##∑
##ⓒ
##❸
##◆
##⑪
##❶
##⑫
##❻
##❼
##ᅡᆫ
##이
##ᅡᆼ
##ᅳᆫ
##00
##ᅧᆫ
##저
##ᅮᆨ
이
##ᅳᄅ
##ᅳᆯ
##ᅳᆷ
##ᆼᄀ
##서
##다
##ᅯᆫ
##에
##ᅩᆼ
##는
##채
##ᅮᆫ
##지
##가
##하
##리
##자
##의
##시
##ᅥᆫ
##해
##어
10
##년
##기
##화
##ᅡᄅ
##ᅧᆼ
##고
##은
##01
##ᅮᆯ
##국
##스
##ᅡᆯ
##한
##ᅯᆯ
##ᅳᆷ리
##을
##ᅩᆨ
주
시
##ᅳᆼᄀ
기
##되
##ᅳ로
##월
미
##인
##유
##사
##요
##로
##으로
##정
국
##장
##ᅮ자
##도
##수
##ᅳᆼ
수
12
##적
##행
저
##상
##대
11
가
##성
##세
201
대
전
지
##ᅩᆫ
##주
자ᄅ
자료
##과
##드
##006
거
##ᅣᆼ
##om
##준
##원
##ᆻ다
상
##권
##나
##ᅧᆯ
##제
##금
15
##전
금리
##비
##를
##일
##ᅳ레
##ᅧᆨ
##투자
##ᅡᆨ
유
것
하
01
##부
##ᅧᆼᄀ
##업
##ᅢᆨ
##ᅳᆼ권
##ᅳᆸ
aa
한
##조
13
##치
보
##용
##금리
인
14
##ᅬ사
##물
02
09
##아
그ᄅ
20
##증권
16
##산
어
##동
##만
정
채
##러
08
##ᅪᆫ
##재
있
채권
우
##융
##에서
스
##소
##on
##안
##er
조
부
금
##ᅵᆷ
##200
연
미국
17
발
아
##ᅬ사채
##표
##ᅣᆨ
##면
##위
##보
국고
##간
##선
자
##미
##망
07
경
##할
000
추
##프레
##우
##류
##프레드
00
##매
신
##ᅡᆫ기
##터
통
##향
##ᅳᆨ
및
기준
05
화
03
회사채
##승
##007
그림
##내
30
18
##와
예
##구
06
##분
##률
##며
고
##ed
리
투자
##20
04
##시장
스프레드
##게
##aa
##된
전망
##니
##10
현
제
나
서
##15
##투자증권
중
##회
##ᅳᆼ급
##al
##려
##진
##책
##ᅥᆷ
##디
##본
일
##출
##후
확
19
##이다
##들
것으로
##여
##능
25
변
50
##lo
##트
##단
##입
##06
##은행
##신
com
##율
##속
##별
매
여
강
##st
##계
##통
상승
선
등
있다
순
노
따ᄅ
##외
##an
대한
비
##으
##경
소
##ᅧᆼ기
##차
##ar
##억
개
##래
국채
가능
##금융
##될
한국
은
bp
3y
##ᅡ지
##it
##익
당
위
##04
##서치
##00200
10년
리서치
최
##ᆫ터
예상
외
##료
69
##in
##중
##ᅩᆯ
##임
##ᅥᆯ
없
in
하ᄅ
##개
시장
기준금리
##bb
3년
하락
달
반
사
22
##데
##적으로
발행
내
경기
##at
21
가능성
##하고
##ᅳᆼ가
동
재
56
은행
23
##적인
##라
본
##re
##환
##딧
##se
##ᅳ레딧
##실
##발
해
높
금융
##력
결
40
다
##bp
200
장
모
##ᅦ이
##영
24
37
##문
##니다
국내
ib
##12
경제
불
100
##평
##등급
##하는
##erg
실
##타
ibk
##되어
##체
26
지속
약
##채권
##관
##ic
##험
##액
27
##05
##omb
##omberg
blo
하나
##ᆼ국
bloomberg
##센터
##0065
##당
##습
증가
##공
##점
달러
##심
##황
크레딧
원
확대
##운
국고채
##격
##식
29
##모
##반
리서치센터
않
##달
##급
aaa
##ond
의
6915
##히
이후
영
##연
물
차
##호
##매수
안
판
##지만
28
점
##ᅢᆼ
구
##목
##or
##지수
기대
##포
##건
때
60
도
cr
에
##감
##거
##난
##금융투자
##에도
관
##베
##확
##자료
##en
마
##음
##존
##합
##ᅵᆯ
##03
있는
완
##면서
##ᅳᆯ로
##정책
감
##종
ibks
경우
판단
성
bbb
여전
하나금융투자
주요
만기
무
신용
당사
##07
31
강세
통화
##량
좌
##ee
통안
##mc
5y
되
##탈
bond
##이나
##역
500
##국인
53
중국
그
##11
추이
수준
##했다
75
##민
월
##ᅳᆯ로ᄇ
##피
##25
지난
##ᅮᆨ소
hmc
##et
따라
회
##ᅳᆯ로벌
특
채권시장
##했
fi
바
##략
2016
52
##설
과
성장
2017
축소
물가
##근
##으며
유로
##국고
35
##08
##il
##무
##각
수익
##복
작
요
##까지
##억원
51
정책
오
추가
##습니다
##션
순매수
##된다
re
##ᅲᆫ
##록
##명
##발행
글로벌
따른
외국인
##담
인상
세
##ᅲ모
##정적
##약
55
##ᅧᆸ
변동
5년
##한다
등급
공
목
평ᄀ
인하
54
수요
##택
##com
로
소비
자산
##등
##되는
33
##201
an
영향
##플
##3년
##un
##지표
80
##질
이어
더
##던
##폭
##물가
##레이
장기
##메
57
유지
##평ᄀ
조원
##코
##시아
포
##ᅥᆸ
##형
##예
##방
개선
##순
##is
우려
##생
환
금리인
##dp
기업
##대비
주간
대비
##말
##달러
2018
##45
배
1y
종
45
##ro
단기
표
현재
올
##xed
st
##석
##통위
70
##현
##ᆼ가
##구원
##스트
이베
##들의
필
##협
크
##5년
##에는
##come
금통위
최근
##크
만
##46
##수채
상황
32
##rs
발표
##축
##티
통화정책
##분기
income
##im
##럽
yo
##개월
hmc투자증권
총
10y
변화
##되고
fixed
1월
또
##직
현대
##ing
##태
##14
은행채
때문
계
##ch
여전채
##자산
34
진
##13
43
##ol
역
투자자
7월
42
##반기
나타
약세
##101
낮
것이
cred
##미국
##09
##하여
##경제
36
산
##ᆼ기
##006f
1년
김
##es
##ᆼ과
호
77
10월
##보다
yoy
결과
##0020006
gdp
##락
##ᅳ름
수익률
##eek
##초
연준
매수
정부
90
적
##23
ec
63
##오
일본
39
9월
##되었
향
##측
38
##ᅮᆷ
자금
##스트투자증권
th
필요
##ent
##ly
것이다
##ag
41
##ᆼ결
##0074
##만기
##증
##함
이베스트투자증권
급
가능성이
##aly
##으나
##rea
감소
85
##하게
65
분
##ᅧᆼ국
44
책
##ec
##작
양
책임
49
##16
완화
##ion
##레이션
analy
##ᅮᆫ화
##져
##웨
증권
week
2y
그러
초
2012
없습니다
76
회복
단
##ᅩᆨ일
95
향후
47
6월
##하기
##에서는
##ig
##0061
##맥
46
##조원
올해
48
83
##oo
환율
##키
민
주식
방
##ds
##맥스
증
##포맥스
수출
300
3월
##야
##ur
##ap
##마
거래
##성을
##운데
analyst
보인
##회사채
##0100
년
가운데
평균
##변
12월
##번
소비자
##효
377
##회사
62
##처
##스프레드
이상
##두
건
##부터
##더
##ae
##추
##ᅡ라
##ark
66
##006e
해외
credit
99
##련
58
##ᅡ질
##ᆼ금
부담
##레
2019
##ate
국채선
있어
11월
보험
##확실
##결
a0
메
##민평
유럽
##ut
2014
2013
규모
##평가
4월
86
##협회
59
높아
##de
##양
73
정보
##0073
##객
##테
특수채
보인다
93
가격
##조업
co
##aaa
산업
82
96
요인
크게
결정
98
목표
고용
##전략
금리인상
2015
##0069
##세가
운
us
2년
##전망
##품
##pi
고객
94
또한
를
기록
67
한은
조사
반영
개별
##ot
##ᅳ라질
##ᅳᆯ어
비중
##르
불확실
##흥ᄀ
84
74
8월
68
##세를
##ᅥ지
둔화
64
##ve
400
##18
##os
##ᆸ력
제한
##상승
92
##천
##파
##흥국
후
aa0
금리는
억
펀
##성이
##다는
72
##시기
어ᄄ
88
##17
자료는
한국은행
##ce
97
##203
79
재정
##리아
##tb
##하며
##본부
각
78
안정
##ay
##배
##omc
그러나
##02
신용등급
두
전략
조정
weekly
어려
##ᅦ인
##10년
##론
##강
지표
2월
##ᅮ적
유동
##ᆼ공
##le
##예측
독일
국가
금융투자
될
입
박
89
##ib
##ul
큰
흐름
리서치본부
91
##통안
기타
보이
81
하향
##란
위험
202
금융투자협회
fomc
61
##되었다
인플
87
채권금리
##기준
하반기
중심
대우
보여
캐
리스
어떠
작성
보유
5월
##그ᄅ
as
##0064
irs
높은
ecb
이미
##ᆨ시
##연구원
영국
##라는
고객의
앞
##ab
##성장
합
동결
부진
종목
유로존
##프
인도
##ment
##므로
잔
법
그리
##eb
##ef
동향
crs
##피탈
전월
##완
##학
##뢰
##층
관련
국채선물
##0200
누적
##창
##1년
##20065
성장률
##위원
정확
##셋
제조업
진행
##set
신흥국
인포맥스
개별민평
수급
주택
수요예측
심
경제지표
the
##ᅳ라
##006f006
##섭
미래
경우에도
600
내용
처
##ac
##규
강화
전년
##ᆻ던
따라서
확인
상대
##째
##특
어떠한
##부채
전일
##위기
sp
투
ktb
##400
##as
같
##007200
십
모습
언
전환
바라
폭
아니
kr
##arch
3771
이탈
##네
ch
리스크
##찰
##87
##하면서
##판
##들이
##남
##분석
##딩
##에셋
rese
##us
##ᆫ드
research
##ist
문
##보증
부채
선물
다시
이번
##페인
##진국
당사의
##재의
##심리
##am
##법
##조정
할
##대우
71
속
##002
##20304
선임
vs
sk
##1015
##el
##갈
##30
선임연구원
1q
미래에셋
금리가
사용
새
본드
자본
##앙
##기업
억원
반등
역시
유가
브라질
##pl
압력
공ᄀ
근
##ᅳ레이
##공사
##캐
##응
연구원
때문에
mark
##되면서
고려
있으며
통안채
여전히
##자료는
##편
안정적
##쟁
##0075
긍
##ᅮᆸ
##456
##었다
##ue
##견
##ᅳ랑
직
약화
##자료로
커
##투
인해
내년
##수익
##ax
마감
매도
##35
##울
##하다
절
##지는
##규모
##절
생
##됨
##유로
감안
bo
##교
대해
우리
손
구조
##비율
설
건설
##woo
##ᅳ리
임
##웹
##들은
참
##토
있다는
레
##ri
##ᅡ르
효
##멘터
##생산
기관
##비스
선진국
못
작용
원화
##매도
남
##ᆨ시코
있음
##ᆨ스
미래에셋대우
##완화
신뢰
##55
유동성
##300
소비자물가
##0020007
운영
##정부
##78
##bs
나타나
kis
줄
##버
##est
asset
##열
평가
회사
##3y
##aewoo
것이나
가계
market
##0500
##으므로
##mi
2010
##건설
##카
재무
과거
목표로
##서는
불구
##ᆻ으나
본드웹
완전
tr
800
##ᅳ레이드
##자금
보장
##ᆻ지만
유입
소폭
##슈
##동차
##한국
##되며
##불
##ort
##하면
##항
##5y
이ᄐ
자신
순발행
##대출
##oc
##iv
cds
##24
##신평
##ᆷ직
엔
업
##돼
대출
##035
##워
##성이나
중심으로
##경기
stab
eu
베
##ata
##욱
상향
##imag
금리인하
##수지
010
기조
금융시장
##단기
불확실성
##브
문제
##006c
ktb투자증권
##75
이트레이드
##ᆼ계
##산업
파
유효
에서
##468
##수요
3년물
말
##82
##가격
##언
무보증
##33
다만
이트레이드증권
발해
법적
data
중앙
정확성이나
##증가
통해
제공
종가
##ᅳ랑스
bb
3787
##잔
악
##2030405
##움
이탈리아
결과에
##빙
##폴
이는
##창섭
불안
##ᆺ데
기간
실업
##에게
언급
토
##ice
##벨
위해
##read
회사채aa
오창섭
##빙자료로
oc
출
판단과
주요국
전체
대우증권
##하지
daewoo
예정
책임소
하지만
외인
##mf
스페인
간
변경
발생
일부
자료에
##국고채
인플레이션
채권시장은
증빙자료로
##th
정도
않을
만한
##ow
##2년
사용될
스프레드는
등으로
때문이다
시작
##은행채
자신의
보장할
##ung
부정적
위한
실제
생산
현황
##유동
무역
##of
함
##국채
##me
신뢰할
spread
##바
##지주
현대차
1d
판단된다
책임소재의
미국의
복
##평균
조사자료는
700
2016년
##19
##ation
ibk투자증권
##획
4분기
##0608
cd
호주
7y
##ᅡ른
##판매
##께
##립
2017년
움직
순매도
##0020004
##금액
완전성을
기대감
##장기
##엔
##하에
of
##자재
##지고
배포
##101520
##성장률
##ᆻ고
들어
효과
##신용
견
기존
불구하고
505
##onom
##ti
주가
대외
장기물
##ᆯ리
교
##너
없이
전망이다
방향
##변동
단위
##크레딧
##100
##ᆫ트
이전
시장은
##기준금리
지수
##캐피탈
이하
##빌
##부분
##거래
##da
##123
##했던
각각
##ᆸ니다
있을
제외
##정ᄀ
다소
김상
연속
##청
예상된다
기금
##회의
특히
##이익
##상화
##ᆻ으며
민간
mom
미국채
2009
##빌딩
##ep
##씨
##10y
취
이슈
565
##든
##ᅲ제
##사채
삼
영향을
##구위원
금유
경ᄀ
##동산
추가적인
##0072
##ver
펀더
당사가
이에
가장
##종목
전주
한화
신규
##자본
##기평
2018년
반면
그리스
이러
##총
잠
하시기
모두
10년물
##검
시점
##dex
상당
측
낮은
전반
상대적으로
월간
잔존
3m
상위
집
세계
카
타
##bbb
많
3개월
증권투자
바랍니다
중앙은행
##너지
연준의
##0065007200
pmi
미치
구간
2011
책임하에
활
아직
##루
메리
1조
rep
usd
hmcib
##ew
cpi
나타내
##득
누적순
목적으로
##ros
유통
##art
150
얻
3q
mon
index
한편
##27
비교
##츠
##정을
##06080100
##ream
롯데
1m
없으므로
##노
##stream
##령
##소비
가능성을
##특수채
datastream
##0065006e
mi
##해야
지원
펀드
2020
566
##203040506
inf
##old
##em
##bal
것은
멕시코
is
같은
##수익률
##006d
##흐름
신용스프레드
eb
받
##통화
##네시아
##ᅡ를
##014
fal
상반기
영업
총재
실업률
##리오
투신
wor
장단기
econom
##ad
강세를
이미선
##ᅳ를
낮아
양호
##ᆨ터
연구위원
##ᅥ시아
lig
##라고
##졌다
##위스
5682
이러한
태
젂
##랜드
선호
##ᆼ공업
false
##10152025
부각
주목
지방
안전
부동산
긍정적
##00700
규제
103
시장의
움직임
실적
##시스
대응
양적
명
##시ᄏ
##대로
함께
##ance
##왑
##이어
##에서의
##28
##ateg
그룹
##매입
인한
##204
##어진
않아
급등
이자
금주
true
##26
##lobal
디
##부문
국고3년
발언
##안정
##주택
em
자동차
구분
증가율
측면
최종
##00200041
여전채aa
##요인
포함
##팅
##중국
kos
정보를
레벨
1w
##rateg
매입
헤
##행지수
충
연말
코
##혜
입장
지속될
##유동화
##접
it
##지션
한기평
##ᅡ례
와
국제
악화
##이하
부분
##송
##ᅳ럼
편
##oft
##혁
10123
##화학
##하였다
더욱
##oon
##부담
관심
속도
##유럽
외환
사실
##템
##0064006f006
거래량
to
##다고
긴
최저
rate
##케
우려가
수입
입찰
김상만
##1d
##ᆺ째
결국
러시아
900
##일본
##효과
공급
허
##그림
##ᆼ기관
공사채
##란드
지역
##ᆼ금액
##co
##jan
##015
형
##이너
2015년
##영국
##큼
mic
영향으로
##라도
##ᅡ로
##멘텀
북
##족
##날
민평
##ᆼ권
##광
##010015
중요
##커
단기물
un
##rosoft
microsoft
##극
점검
합계
##eg
##펀
개인
경계
not
프랑스
##치를
백
10010
##73
0123
잔존만기
##이며
##58
내용은
##력이
상회
십억
지난주
물가상승
word
정보로
##ity
##800
터
##다면
십억원
##44
su
연합
report
##애
양적완화
마이너
##손
한신평
##ᆻ음
##web
bondweb
##계약
소매
버
등을
사업
##0300
global
120
##까
변동성
##ug
##ia
##002e
##tf
섹터
fr
lee
boj
##1012
낙
##df
실질
별
##런
##기금
추세
누적순발행
##에서도
strateg
가ᄅ
삼성
무단
안전자산
lg
2008
##국내
##금융지주
완만
##되지
4q
##ᅲ레이션
심리
##ers
##016
##22
##59
##차유동화
원자재
작성되었
추정
수록
윤
복제
우량
카드
##덴
힘
##되기
정치
##보험
천
늘어
##활
##res
볼
##에스
##지역
##ᅳ럼프
이어질
##시키
##상환
##omax
인플레
수록된
infomax
차환
키
모습을
##하락
##회복
않는
5년물
##age
##48
##했고
뉴
2013년
##0100150200
##위험
의견
110
##시점
논
##04400
보였다
보다
##2y
정부의
터키
##77
san
등의
##유가
마이너스
가능성은
##기에
하는
생ᄀ
##ma
##rae
##내외
##물가격
정상화
게
##fr
##002000500
##것
jul
금융채
##기간
##ᅡ르게
참고
을
호조
상승률
추천
다음
##채권평가
##vest
##퍼
##프라
##읶
발행시장
##0063
기준금리를
점을
##dy
남아
얻어진
최조
##0065007200200
##기대
##나다
스위스
어렵
가중
##여전
##더라도
##0440046
jan
##북
##핚
지난해
##없
구조조정
##0020005000440046
2q
포지션
pt
##76
##pli
##수준
2019년
스왑
30년
##탕
캐피탈
석
산업생산
인식
여건
일반
의미
여부
국내외
는
##인도
##low
etf
철
##서비스
있지만
##ᆼ결정을
우호
담
##철
연초
내수
a급
대부분
대규모
바탕
##2009
##0708
##분간
invest
고려할
mar
트럼프
당일
듀레이션
##림
ap
##ᆼ구
##ᅳᆺ
##병
sme
net
##지출
바탕으로
시행
당분간
음
가량
ex
달러화
##ail
위축
##관리
싞
보면
하회
연간
최종결정을
인도네시아
##농
##1y
않은
mirae
과정
제한적
##0064006f00620065
루
##43
메리츠
전자
전년비
위기
돌
선택
##펀드
250
sep
컨
또는
것이라는
대내외
##운용
해외크레딧
investment
정책금리
cap
##주식
##브라질
##기관
소매판매
##0400
베팅
##케이
두산
##ov
##로서
해당
물론
##유입
넘
대신
##pliance
##bi
##ull
##웨덴
##독일
생각
##쳐
112
and
연결
##버리
접
##예금
2011년
하이
##00200064
증시
jp
지지
조사분석
##40
아니라
급락
존
##변화
##전문
중장기
예상치
qe
비해
##010015020025
sh
##충
현대차투자증권
##af
##69
##머지
비율
##sec
##4681012
##50
##도가
위안
계약
bri
##구조
jun
##ᆻ는
##여건
등이
긴축
핵
0001
##보다는
##yp
서비스
시사
##ᅩᆫ합
최고
##ᆼ격
있다고
연내
모멘텀
brief
##ᆺ한
외국인의
##보유
밝
배경
con
당사는
ep
살
##1w
##ᅳ러
##박
##비중
##통령
된
##금리는
동의
fed
kospi
수준을
순매수는
##vi
102
bull
##플레이션
계열
##igh
##센
##스ᄐ
##ank
형성
##all
##상이
금융위기
##매각
계속
양호한
금리의
있기
199
점차
##red
##ii
연합인
있지
##거나
알
수도
투자심리
##29
3분기
##ivil
부실
##가능
##럼
읶
사전
최대
연합인포맥스
##ob
may
금액
##색
석유
##60
##권은
##금리가
2014년
백만
진입
##스코
투자전략
##and
##iville
은해
##압력
신한
이어가
oct
##ᆼ가리
필요가
##종금
등락
전일비
국채선물가격
높다
mil
국면
상단
##00200300
##79
유출
해소
시간
것을
페
##올
##사의
등에
strategist
imf
까지
crediville
notice
회사채a
주식시장
##카드
##흥
##멘털
bullet
줄어
플
##ᆫ탈
##링
##ᆻ다는
조달
##12014
##잔액
체
대통령
만큼
##메리
##3035
##국의
차이
##알
##필
##곡
회의
##ci
조선
변수
##갭
집중
bulletin
pdf
통계
금리상승
##1m
##und
앞으로
##이라는
기준으로
##탠
##002000410064006f00620065
시기
물가상승률
##젂
투자에
##시스템
##그
##00600
가계부채
젂망
##종가
보이고
있으나
고용지표
##ᅥ래
경쟁
피
도입
듯
쉬
그리고
##칼
저가
economist
##ᅥᆷ위
않습니다
##81
##daq
##redit
##업종
매출
001
##개선
가능성에
작년
심화
010203040506
동안
존재
##ter
저작
##트폴
compliance
펀더멘털
열
흐름을
##짐
##했으며
##독
##침
맞
##트폴리오
##헤
크지
##otal
다른
##블
##중공업
##85
##칠
##종합
긍정
##됐다
하방
농
분기
##ps
##성과
협
##lor
##온
아시아
7508
doc
종금
##핀
지연
epfr
2012년
##투갈
잠재
##wap
키움
이유
3779
태국
상태
##sh
##um
상황이
##닝
업종
##르투갈
보이며
##혀
자산매입
예상한다
##404
대상
1분기
eur
##사ᄅ
##혜경
##ital
발행금액
제안
빠르게
동일
##널
##제조업
20년
외부
전기
국민
kb
##tr
종류
##리는
101
##스권
##외국인
위원
##둔화
자체
캐리
2010년
둘
모든
##사록
활용
##0065006e0074
##차유동화전문
2분기
##70
##선행지수
있고
##했으나
금리를
##술
등급별
약세를
out
##백
박승
핵심
##if
##인데
한다
##oody
0204
neg
##이고
스프레드가
##버리지
중립
##기조
계획
sme분석
##1101
상황이다
점도
기대가
적용
위험자산
130
##td
##자물가
##kos
하단
투자자별
도표
##21
우선
768
##법인
aug
##입금
##호주
##센서
##월월
2층
곡
즉
##45678
##그림그림
bold
abs
##폭이
##56
저금리
이동
통한
##합니다
##종금증권
성공
##ei
보합
감안할
##0075006d
##cds
점진
##음을
nov
확산
##경제는
##ong
##4005
##주간
##065
##74
##에너지
저하
역전
flow
불확실성이
설비
baa
##됨에
##view
일시
##int
분석
카드채
지속되고
종합
국내채권
##순위
dec
패
전월대비
제시
직전
펀더메
그림3
재료
없다
##국가
예금
han
국고5년
데
수익성
키움증권
통안03
##웨이
확보
전망치
판단한다
임금
##itz
##두고
##ibor
##ᅮᆼ
ebest
ad
경상
핚
##환율
total
하락한
매매
##iti
##bc
##ray
박스권
ebestsec
##83
되도
포트폴리오
104
##0억
##기지
##시기에
##ᅮ준
경기회복
##처럼
##eritz
stre
테
##별로
경기부
##00650073
##없이
tel
증ᄀ
##ᆻ기
##op
##업자
자산운용
보유하고
작성자
##0100150200250300
qu
면
한은의
111
##초과
저축
반전
수준으로
##ok
금융기관
30y
발표전
##이탈
##유출
늘
##00610064
##회사채aa
apr
매우
중국의
철강
뿐
##즈
##질랜드
지금
##0075006d0065006e0074
##혼합
##지점
의사록
##66
##소득
상황에서
채권금리는
##점을
##연준
##ᆼ기업
손실
##ww
##afn
hanafn
##di
##ct
123
환경
캐나다
ti
##ns
본다
스탠
투자시기에
김혜경
부담이
당시
관리
합의
꾸준
##수출
bbb0
##씩
개별민평3년
wti
##지면서
수준이
##턴
예상보다
쉽
##주의
##비용
크레딧물
요약
해외채권
메리츠종금증권
에너지
##병하
##경쟁
cp
차지
##65
##금융채
##세는
##00650020006
##cl
0002
##농업
street
##해외
##센서스
##패
##시킬
상환
이벤트
##리핀
##관련
##히려
##ᅥᆯ어
시장에
급격
##주가
없는
##20년
##력을
##ect
hy
##물량
완만한
##070809
##crs
##0020
##보합
상승한
새로
##006b
##002000700
##클
경제성장률
140
##2012
ism
##od
##61
##제공
불가
감안하면
2조
미매각
##활동
선택이나
비중이
##닥
일정
25bp
행
##gdp
105
##위원회
##삼
##kim
##ary
제공할
##p를
##irs
##105
물량
##00610074
www
절대
##듯
##fax
초과
##허
수준에서
곡선
##했지만
fund
보고
과거의
작성되었으며
6m
##상황
강세가
##시된
작용할
상품
##002003004005
통계청
요구
흐름이
ra
##레이시아
##경제의
tb
이를
##2008
노동
오히려
##010
경기선행지수
잔액
mbs
##기는
공제
##가지
##되었습니다
##0608010012014
##대금
##른
앞두고
002
##회사aa
ocs
추천종목
전병하
##텔
##ᅧ보
홍
##ᅳ렉시
meritz
##작되었습니다
##본드
본격
##당한
a등급
스웨덴
현실
##imaged
좋
##look
##세로
##최
##하향
##하다는
##2016
##증가율
##dc
소재
##가치
##입니다
지정
현대차증권
펀더멘탈
점에서
##머징
nice
##까지는
##잔고
사이
##2013
공모
euro
접근
##멕시코
chart
충분
bank
##38
gs
vol
뒤
##리스
관계
커브
##기타
##들에게
##이었다
##반영
##앤
by
##햐
금일
전망한다
##여전채
##순매수
자료의
##0020005
편입
##37
##ez
중반
##점으로
##연구
##조선
제작되었습니다
##하시기
작성한
##ill
뚜
연방
단행
근거
108
003
7724
##468101214
대표
지적
fx
##ha
예측
##공시
##항공
109
근원
cre
##느
통화정책회의
##홀
바라며
##ᆼ금리
##악
채무
210
야
현금
청
머
운용
##49
##하이
##커브
##ᆩ에
##함에
##특수
좀
lig투자증권
##콩
##0076
##id
경상수지
##전주
견조
##ᅳ렉시트
##아시아
매파
권
##ampl
전반적인
##ᆻ을
na
국채금리
매도전략
대체
##동향
진행될
##받
##일드
##러스
경계감
경기부양
범위
보임
##ang
##엘
tn
##프랑스
##99
주장
20일
발행이
##집
포스코
원화채권
캐피탈채
0006
점은
채권투자
제약
##101520253035
if
##린
##ᆼ거래
이익
주식형
##제공을
검
200204
91일
정확하게
##ᆯ런
2009년
보다는
외부의
##탁
##전성
방향성
은행권
##연구소
##68
##개발
적극
정보제공을
재고
best
##cc
충격
##도체
부족
ebit
##주요
##bp를
주중
##수의
부당한
전망을
##무리
과정에서
##메리트
##00720065
##00630072
자산배
업체
살ᄑ
pre
반영하고
##글로벌
##피아
수요가
##이기
종료
압력이나
##참
al
mmf
십억달러
##크로
##엄
##80
##금유
##수록
페소
극
##004
재개
##르웨이
채권형
6개월
기초
요인으로
feb
##6m
##둔
의견을
케이
달리
##이탈리아
라
##00300
부문
수정
연준이
##3개월
##시켜
영역
##확대
직접
간섭
에스
##착
통신
##images
bestez
원인
##추이
저가매수
##년년
##운드
##밴드
##ᅡ래
##대한
자료를
한계
단기적으로
##olic
모기지
##2015
##je
이머징
변동성이
확인합니다
##뉴
차익
embi
##싞
내외
실물
##qu
미치는
차별
2006
현재의
기록했다
뚜려
##세계
outlook
##도는
비우
전월비
도움
##마크
##그룹
비농업
미국과
플래
##욕
기업들의
2021
나타날
##006f0062
##84
##수량
포르투갈
##방향
202468
113
##디스
일단
항
실시
않고
##olicy
225
##시점은
160
##구분
comment
##증감
##00630072006f0062
##00630072006f006200610074
갈
##yoon
##부품
20y
출발
##지에
가ᄑ
상스
신흥
##핑
금리와
##일자
조기
부양
논의
구성
담당
##305
결정을
어려울
기대감이
기회
컨센서스
되돌리
##ati
##경제연구소
상대적
##베이
그림1
##통안채
한화증권
##ight
en
##십
헤알
##3사
0004
브렉시트
##및
적절
##하나
##0067
##업체
한국의
##식료
db
##도시
##1d1d
##비아
##만명
폭으로
현상
2020년
##wo
보일
##터키
비용
매수전략
초반
##선물
대신경제연구소
이표
##전자
##목표
네
중기
125
##투자의
늘어나
불가피
그림4
##2010
de
크로
##공시시스템
풍
##bond
##ᅳᆯ로우
kim
막
그렇
ecb의
##006c006c
국고10년
180
##에이
관점
예산
##20y
##ering
##ᆼ감
전반적으로
##90
확대될
##1w1w
##eff
ki
##나리오
수준에
전자공시시스템
303
공시
그림5
마무리
##조달
##재된
판단이다
350
gdp갭
분위기
준
전주대비
하이일드
##91
##ile
##플레이
회사채bbb
##페이
시장금리
등급민평
추경
고정
##4567
자산배분
구제
##si
##정치
##alk
##되었고
##00740065
일자
##발전
수량
있게
##임금
관세
가정
##자동차
##00e
00010
매각
이어갈
##기대지수
2bp
##둘
무역수지
이정
##만에
적정
1bp
##72
##pt
판매
비교적
##1m1m
리서치센터가
##035002e
ifrs
##035002e00300
##시간
찾
나타나고
sm
##그리
첫째
레인
107
##인의
엔화
정보로부터
##gb
##2006500610064
유통시장
##00200052006500610064
그림2
##현대
양상
##010015020025030035
##스페인
기계
8633
검토
3058
##ak
106
##일광
##미칼
feff
강조
##0065007200200035002e00300
##002000520065006100640065007200200035002e00300
원유
압력이
이제
주체
위안화
##희
뉴욕
줄어들
##경쟁률
둘째
##jeon
##학적
##ungha
##unghajeon
##인플레이션
page
가까
정성
##딩스
kis채권평가
10건
금리차
##은행의
##006f006e
이상의
보험사
##woom
kiwoom
투자의
##2018
종목명
##cp
##mer
나서
차별화
##ans
발행잔액
장기화
어려운
##곡선
전망된다
현물
나타났다
서비스업
ebitda
금통위에서
방안
새로운
##자가
##1201
##전환
증감
헝가리
flows
##00600800
이루
지속적으로
##케미칼
아래
##ᅧᆼ제
절상
생산자물가
##인상
당장
mac
pro
##ant
반응
정성욱
석유화학
##홀딩스
220
pag
커지
용
ytd
##ik
시나리오
아닌
수준의
증액
교보
소득
유지될
##ution
##cd
옐런
##예상
##aps
##aily
##해서
byunghajeon
##이자
114
레인지
daily
보수
050
재정위기
측면에서
제안한다
##son
##bo
##재산
전년대비
낙관
해석
moody
중소
음식료
##over
##ᆻ다고
셋째
##talk
12년
추진
##트로
##해운
어느
의장
앞서
섹터별
부과
광공업
기업의
규모가
내용들은
사태
유로화
발표된
libor
##001
조금
bondtalk
중요한
##퇴
##도래
256
지정학적
강세로
변동폭
후반
한진
밖에
##채권형
우리는
경제전망
특수
참여
call
연장
만기별
tap
반도체
앞둔
북한
##ᆺ어
##상향
##아이
##유로존
정치적
가능성도
##0020004100630072006f006200610074
번
##고용
month
##주전
2001
채권시장의
##도록
##정보
##맊
지급
된다
##db
이ᄅ
##도를
0003
대해서는
##ey
시장이
플로우
115
있으므로
##등급등급
통안증권
##전주대비
주도
119
사상
경기둔화
규모는
##징
##실업
개별민평5년
주택가격
국제유가
윤일광
도움이
순상환
순유입
과도
높아질
##ex
유의
##국고10년
절하
온
##our
007
##ren
실제로
pce
##는데
##018
##트남
##00200063
5bp
예상되는
인상이
배제
조사분석자료는
##스ᄅ
지방채
##06f
##실현
채권시장에
벗어
cent
##ᆸ기
135
##itch
되어
tapering
지분
3bp
수익률곡선
color
협상
part
으로
인상을
넘어
pdfx
기획
배포할
우호적인
jung
##동안
해결
2008년
##막
시각
연기금
모습이다
평
##써
##이라고
스프레드의
##차례
유사
##듯이
sec
같이
000억원
투자수요
##하다고
작성되었음을
없을
##006c0069
##0070007
##그리스
당사에
규모의
데이
치
##iz
##2017
명목
살펴보
점이
##태국
510
저점
창
콜
##스를
##냐
170
등급전망
견인
설비투자
없어
##bp에서
부진한
##정경제
시중
##40455
##f6
기본
스티
크레딧시장
무게
##owns
ft
##였다
지적재산
##88
##공ᄀ
##영업
재정정책
표1
은행의
높아진
견조한
가치
##러시아
서울
우려로
2007
3층
##관계
##되었던
기타법인
주택시장
5051015
##탄
##재고
투자자들의
구제금융
maps
팀
##겨
##하지만
##재정부
꾸준히
폴
##읷
본인의
##발해
116
차트
투자등급
부담으로
각종
##ᆼ간
조치
연은
##무역
영업이익
##수당
어려워
국고04
스탠스
0m
##벽
인수
##olution
ba
##sk
매력
따르
우호적
##ook
지역별
비로
##멘트
투자자들에게
취업자
157
하위
부분은
폐
★★
##용ᄀ
한신
데이터
##쇼
##지가
##결과
금리하락
##일랜드
더불
것이며
세계경제
패턴
##한도
121
##재정
2000
적자
설명
많은
밝혀
for
##정기
aa급
##자료의
##회사a
##공사채
##ading
bu
##이는
바ᄁ
##007200200
더불어
강한
##쇄
##생명
기획재정부
총거래
잔존만기종목
##cy
월말
이어지고
##통안2년
##eral
은행채aaa
##하기는
ma
성과
100엔
##0608010012014016
macro
##up
##ᅩᆨ은
##들을
##혼합형
##지원
것인
그림6
호재
기관별
##휴
기술
황
확장
선반영
장외
영향은
올라
미칠
사실이
on
수정경제
대만
국고3y
리보
##002000410064006f006200650020005000440046
##봉
##pro
##won
##다가
122
pr
되는
유지할
긍정적인
상승세
주식투자의
##oq
##ore
##금채
##실적
##act
통과
박승진
lat
##과의
##한다면
레버리지
##00200076
##릴
##수신
국고채3년
방식
교보증권
##국면
않다
운송
총재는
gray
##자는
연설
허락
##원하
004
기준금리가
ocs78
나신평
190
전략평가
a2
ms
##있는
##지를
review
필요한
##강세
투기
메리트
##3m
##ea
##credit
조건
##신뢰
core
박진
전망이
외화
##미국채
쉽지
##델
총재의
힘입
##ra
한은이
같다
124
부정
지적재산권은
떨어
자료입니다
변형
##ust
제3
상승을
##금리차
##개혁
2459
빠른
동반
cj
우려를
crewon
##일치
##인덱스
느
##먼
##hn
재정ᄀ
황원하
301
swap
끄
##은해
##fx
##제이
crb
만기도래
사례
공개
신종
comp
2627
초장기
저작물
광공업생산
203
009
수준까지
따르면
##joon
##iel
##사업
5005
외국인은
##정과
유효경쟁률
##ard
##00720069
받아
jungjoon
##ᆼ보
##담보
##지며
하락했다
##트닝
출구
qoq
돕기
인하를
##리가
##자에게
증가세
유가증권
pds
성장세
##ᅲᆫ형
우려는
##ᅳ리미
##ities
자극
어렵다
풍부
##ᅳ리미엄
policy
##b0075006d0065006e0074
요인이
안정적인
돌아
광
bn
독
##0123
##상품
지출
영향이
##종가종가
기여
제기
반대
##italic
511
##머
##0억원
예정되어
##ypark
추천종목은
##yo
##국고3년
##ource
jm
##간의
약세가
7761
부채비율
한신정
##64
##단위
##차입금
애
기관투자
##cds5년
##out
너
##해양
134
##취
##순환
문제가
상당히
정리
##건수
횡보
##통안1년
##시에
##동월
##중앙
##했을
수정경제전망
탄
반복
##플러스
thom
움직임은
대선
있습니다
##002d
##력은
##dea
이동평균
취약
이유는
혹은
하고
##억달러
##00200061
##01001101
asia
리스크가
남아공
##002000410064006f00620065002000520065006100640065007200200035002e00300
128
##00600700
005
지속되는
것이라고
출구전략
위주
frb
차익실현
##63
50bp
외국인이
##71
##제철
##0901
##성은
의한
a3
cor
chg
코코
전송
아니다
##적으로는
장중
만기일
117
성명
신용평가
표시
assets
우량등급
##ᆻ는데
thomson
4bp
경로
구체
근접
있음을
교역
gro
##때
수치
음영
벗어나
##니아
##현재
##kospi
##pe
##ks
##이라
##하기로
기조가
##롬
신중
502
매경
있었다
##둘기
프로
##대투
ital
힘입어
div
수주
008
하나대투
##end
##신용등급
##그널
비우량
이루어
저작물로서
채권의
선제
증권투자를
저작권은
그런
실패
##복제
##현황
##apan
##ays
잔고
이ᄁ
상승이
##회사bbb
기타금융채
설정
홍콩
통신서비스
404
cy
주2
지주
##ᅢᆼ크
##협상
bbl
침
##군
##p에서
##했다는
증권업
iss
이표채
ik
##컨
129
133
재정적
6309
##41
강등
매수세
싞용
소재용
idea
##틸
거래대금
##ub
이와
기자
##장일치
경제의
ikyoon
##구재
2713
##기로
질
낙찰
##만한
뉴질랜드
##줄
##lee
신평
상승에
변화가
##c5
##fi
경기에
표2
참고가
##46810121416
be
fin
pres
yiel
##53
##ls
상존
도래
##00730074
산업은행
2차
시그널
##름
동부
##당국
##ision
stable
되돌림
##리티
해운
자금이
파운드
미만
251
3y회사채
결론
확대로
2년물
7년
##sy
##500
##mm
재차
두ᄃ
##규제
며
##96
##미국미국
##의장
##긴
정상
약세로
제공한
위해서는
##mea
전주말
미연준
바이
만장일치
백만원
##456789
정유
기대를
통안dc
##된다면
증권업협회
1조원
##이즈
기반
그림그림그림
##002000
진정
그림그림그림그림
테이
##채무
126
155
했다
##b9
상승으로
##ict
##국고5년
정부가
##ecd
후순위
끝
미국회사채
고민
비스
##atch
가계대출
118
##만큼
##erve
##매매
중앙은행의
##틸리티
먼
##swap
비둘기
역할
650
재무구조
주목할
주별
압
갭
##값
우위
전년동월
말레이시아
회사채aaa
##ings
낮추
op
겨
##ᆫ티
대형
전년도
머물
날
혼
italic
휴
##sp
기점으로
그것
환율은
신용스프레드는
##kosdaq
##수가
가지
##시키는
##f7
##week
##와의
노르웨이
##환경
450
비중을
ls
##화점
151
미국은
고점
단계
중심의
##park
##홖
##웃
순환
##00200065
##ock
무단복제
##헝가리
##조선해양
중소기업
##채권투자
##공채
민감
##내용
우세
##043
급증
ce
자료로서
##침체
152
031
없으며
##ᆫ치
홈
515
갖
바닥
##사들의
15년
139
193
효과가
하위등급
##6월
138
제고
관망
##석유
##그래
대해서
동양
엘
##여전aa
##00720020006
다를
개선이
##095
##필리핀
제3자에게
cool
금리인상을
문구
yield
##시건
##해진
168
공공
##율은
##경로
있는데
##210
핚국
##년대
##윤
##인트
당사에게
첫
cur
##fa
기저
##성에
##주체
156
##플레
연준은
비중은
제한될
503
정책을
그룹장
##이지만
상관
##솔
하락으로
신용위험
적어
132
국고5y
##ᅳᆨ자
##시장의
##ments
##불안
hs
##ᆫᄐ
##임을
통화정책을
##ᅳᆼ과
##보고
정부는
완화적
##자료로만
fy
pos
up
##기자본
137
최소
차입금
되었다
ftse
##슬
127
##소현
오르
외환보유
먼저
9m
차례
개혁
높아져
##org
##텍
##대상
없음
성향
##참고
5002
##은행aaa
##폭은
채권을
두고
sub
##으로는
165
금융통화
수요예측이
저축성
##주문
##2014
5조원
##그램
##현수
코코본드
채권분석
크레딧채권
타이
##흐름을
긍정적으로
증가로
하나대투증권
홈페이
##ud
##ir
##가는
144
장기금리
tips
501
##306
##춤
0008
##ᅡ지막
유효수요
기초로
지나
유리
강보합
특수채aaa
##통화정책
##밀
240
capital
##롬비아
경기가
총선
##특별
이정준
6bp
##축소
##ᅡ련
걸
##ern
##시장은
##겠지만
상승했다
##oth
거의
136
##훈
##잉
##륙
제한적일
점도표
##누적
143
145
소수의
통화완화
매수세가
division
equ
##47
aa등급
0910
##들에
##캐나다
충족
issue
##해질
대림
금리커브
게시된
현실화
##ikk
수출입
높아지고
북미
high
탈
특별
##폐
##file
##dow
##성화
##재료
많이
참고자료로만
활용하시기
##ikkei
국공채
내려
내구재
##00200069
##0020006f
부담을
##006f0063
플래트닝
##52
상해
투자가
##콜
부도
##수요예측
##신뢰지수
재정적자
몇
금리도
167
고금리
확대된
##현금
돌파
##향과
이주
2004
##해외금리
침체
씨
##32
750
분류
##ign
bas
##ᆼ극
동시에
기대된다
##심리지수
입장을
2조원
ip
응
주로
하에
##부진
##061
상승할
차원
수입물가
##0100150200250300350400
##ᇂ게
##스위스
##자산관리
분명
##해보
252
다음과
##ype
##ᆼ감독
1일
##이상
##니어
필리핀
##인도네시아
충분히
변형될
ez
눈
기재된
153
기준금리는
##감이
##주택판매
채권에
270
##폭을
회복세를
##폴란드
etfs
소수의견
##려는
경기개선
약보합
인상에
보이는
시간이
홈페이지에
##핛
##기가
##산시
00020
예정된
제외한
마지막
##lation
발행물량
높게
크레딧스프레드
경우에는
마감했다
##imagedict
##ownsampl
허락없이
5일
##e5
##51
상승세를
확대되었다
의회
금리인상이
관심이
##으로써
##주일
131
173
회복세
##ack
kr6
##뉴질랜드
ho
국고10y
조사자료의
020406080100
스티프
japan
마련
중간
154
손소현
##쇼핑
프리미엄
##스왑
##월간
제조업지수
ceic
##ain
유지하고
일본의
##총액
bolditalic
hj
금리밴드
경제에
##남아
효과를
급격한
##sis
##자들의
하락을
테이퍼
전년동기
##찬
증가한
금통위를
문제는
##핵
길
지준
상승세가
변화에
##되었으며
계열회사
##120
##되나
02004
##erm
도달
알려
뚜렷한
lt
##42
30일
##any
##자체
##주당
##았다
169
이어져
발표치
##스트리
7bp
ko
oecd
1012
가시
인구
##arcl
달성
230
높음
국내경제
어려움
정도로
summ
시황
유도
146
소식
하락이
주간단위
##상승률
##창출
50510152025
##별로는
##롯데
그래
나오
소비자물가지수
절대금리
위주로
158
국고05
발행을
물가안정
회사aa
##정금리
##지급
기인
##urities
하향조정
싸
##ᅥᆫ설
159
물가가
##한다는
##0069006e
리서치본부가
##00200073
루피
10일
##모멘텀
규모를
낮아진
##arclays
bil
149
아주
533
환율이
열어
##이클
일주일
##능력
노력
##결정
at
5678
인하가
##ᆼ구건수
격
책임연구원
##화당
##수주
147
시장에서
5681
패턴과
bei
들
##팀
##oint
회사채의
기간별
구간별
##31
incl
1개월
##되면
경험
##anc
##반전
##ess
소비자기대지수
320
##새
##엇
##수는
16년
00000
comm
fig
수익률은
ps
ris
##덜
##로는
##주주
##조건
인니
economic
10bp
01002003004005
##물의
##선호
##반등
상승과
8bp
rp
국고3
하락에
않았다
##리스크
##디스플레이
기저효과
전후
보통
보호
확률
세부
소비자신뢰지수
2주
##스러
##페
우수
그림7
그림8
##신흥국
##anti
##되었으나
##마트
억제
##007000720065
풍부한
corp
0200400600800
summary
##크라
이용
175
상승압력
언론
##담보대출
per
watch
주의
일드
가능한
경제성장
읶포맥스
##ral
##유플러스
제도
하락할
증가에
못하고
악재
##erv
연금
추가로
전략을
le
드라
##34
인정
투자참고
##006f0073
##만기금액
경쟁률
bis
##017
식
198
하락세
바뀌
##fixed
##095100
##춰
##순이익
배당
금통위에서의
자금조달
폭이
17년
통합
##낸
50년
162
조짐
발행일
단기간
##은행채aaa
1층
##나라
##자의
##은정
##산물
회사채는
그림9
상승은
선행지수
비롯한
equity
연체
261
정책이
정부부채
금리인상에
2022
금융통화위원회
##으로의
최근의
전략은
상당부분
##ast
##국민
증가했다
필요하다
tier
kdb
무엇
##무보증
손은정
부실채권
preview
상해종합
3조원
##이지
읷
##0556
##eck
##0064006f006b0075006d0065006e0074
살펴보면
##006f00630075006d0065006e0074
310
a1
승
수는
여기에
##ind
방어
##통계
##총재
에스케이
##리보
##0066
점이다
통안1y
표3
한국은행의
유효등급
속도가
1001020304
매파적
4조원
쪽
##b8
##짂
148
00015
한국투자증권
yoon
언급한
민간채권평가
누적순매수
신한금융투자
대기
##전산
아울
개입
정도의
흑자
012
##용택
142
##캐피탈채
신청
inter
##말레이시아
일시적
##ative
금리커브와
long
##ise
상장
것도
166
개선에
bdi
클
##드를
##pa
싱가
대책
정용택
다양
##ica
##높
폴란드
2일
##하자
##준비
3y국고
경기침체
단순
관련한
폭의
김상맊
mono
##resolution
##amples
##도시공사
##cr
##스웨덴
대금
##동률
좁
하락하는
내역
500억원
##했음
##ury
20246
##imagem
게다가
##특수aaa
monthly
아울러
cal
sa
##hy
인데
253
res
자금유입
fomc에서
3조
ii
209
10y전주대비
못한
##제조업지수
요구불
##덜란드
##tp
##ᅮ자본
015
405
##자본증권
##ific
over
##c0
29일
유로지역
인하에
감소한
높아졌다
작용하고
##ivers
기존의
빨
지ᄏ
##억만기
주요지표
##국고20년
금통위원
##efi
강화될
410
emea
oz
##범
##95
006
260
정책의
후보
공격
pagefi
##스로
##서울
##인하
##붂
163
놓
통안2y
물가에
krw
매출액
비농업부문
적절해
401
512
610
금리에
나갈
##0859
215
##2월
중순
192
통화정책의
##증시
방법
대우조선해양
이슈가
gen
축
##이후
##요일
유틸리티
하더라도
204
213
##변경
나타냈다
##0020006400650020006
mo
##드라
##f5
##주는
##2000
반락
##발표
##했기
##뱅크
##유동성
담보
신평사
3일
##금리금리
0005
10001
상황은
것이란
##전망전망
univers
##mark
지자체
확대에
세아
##asdaq
ag
par
누
##ble
신호
##ᅥᆷ에도
전월말
##ᅡ르헤
##fo
화학
이유로
##ᆼ규모
178
##정부의
사이클
im
##mt
##선진국
21일
analysis
뿐만
##사에서
##제외
발전
시장에서는
수준이다
##ish
회복이
건자재
저축성예금
jw
##셍
요소
일자리
스티프닝
##2e
주말
##돌
##당국의
##틱
위험이
채권금리의
15일
국고03
잠정치
해당하는
대체로
gem
##가스
아일랜드
##닉스
##호영
그동안
커질
점진적으로
##sed
##칙
174
순유출
##한다고
거래가
##부터는
못할
민간소비
금융감독
##안정성
##중앙은행
##크라이나
deb
##1q
##율이
노호영
지속적인
공화당
##0061006c0069
##은행채aa
4y
420
##가총액
얼
05101520253035
509
##대비대비
월간채권투자
관점에서
비슷한
비둘기파
##sm
##jp
전망에
10000
##7y
그림10
##edi
외국
244
수요예측일
적극적인
그런데
##ᅡ르헨티
amer
##ure
##갂
##하더라도
305
189
나설
경제가
##오토
한은기준금리
##수신증감
##00600700800
##영ᄀ
179
실행
##채권지수
나타난
##0061006e
##00730073
##cial
보고서
##0180200
##에프
재투자
##확인
결과를
실제치
1m1m1m
기관투자가
##석유화학
korea
##매력
##들어
월별
##불확실
##놓
exp
securities
msci
##ᅳ룹
##지지
##어음
가져
014
선거
의존
그에
금융시장의
1w1w1w
테이퍼링
1w1w1w1w
##육
전개
141
금감
182
성장을
재정수지
움직임을
##1d1d1d
ccc
##ear
##900
대기업
013
한솔
대한항공
##찿
##erging
1d1d1d1d
##00720061
##요인으로
이주열
basis
##하거나
##제십
선행
가능할
2248
##확충
우리나라
##보고서
대로
##신규
221
28일
마찬
디플레이션
외환시장
##시건대
##ᅡ르헨티나
601
non
##이슈
##치는
확대되는
2024
투표
europe
debt
##ip
인프라
##트워
inc
하락세를
어떤
1012345
##스럽
금감원
마찬가지
1차
##ᆼ키
171
신용ᄀ
##ᆼ괄
gdp성장률
##초반
년물
루피아
20020406080100
팀장
book
주1
13일
##친
1001
산금채
##관련자금
예산안
##b5
주춤
14일
##202
보유잔고
상당기간
##혁재
baa3
##남아공
미미
##인프라
164
아이
##분쟁
발행량
축소가
##하였으며
##손실
적어도
짜
##c8
##ged
그럼에도
##표시
##회담
활성화
inflation
풀
##한화
##도의
국고20y
국채를
60d
##순발행
디폴
center
##095100105
하원
185
내부
550
상황을
##acific
좋은
##he
##정상화
한국경제
##ina
##포지션
##코어
잠재성장률
요구불예금
이내
205
금호
불과
267
국가들의
##ell
기조를
##7528
7조원
##36
172
여러
공고
##쳤다
##obe
risk
barclays
이런
##사가
선진
물가는
514
4001
##절벽
adobe
##00e4
##002d0064006f006b0075006d0065006e0074
6조원
ig
##냉키
##ine
##영향
현대제철
총괄
잔존만기국고
루블
이뤄
1h
##사로
국고0400
##itor
않음
기대인플레이션
목적
표시된
처음
장외거래
육
##금융aa
당초
211
5y국고
여전채a
종합지수
가시화
국고채권
수준인
고용시장
se
##홍
##sc
181
리라
현상이
##출처
차입
##0350
##카드채
4일
##0204
반영된
성장률이
##30년
체결
과도한
##멸
##gray
이평
시설
##0068
개정
실업수당
받을
ro
##fitch
##d5
##차익
한국cds5년
기대는
economy
논란
인덱스
ois
##차를
채권은
183
리서치센터에서
단기금리
수출이
quant
총거래량
드라기
##도로
개선을
만일
가격이
자동차부품
##퍼런
중장기물
가파른
##리고
저평가
##젤
##aaaa
사회
은행들의
표면
만에
완화정책
101234
##케어
상회하는
신흥시장
박진영
1m1m1m1m
희
##daewoo
##nikkei
##제일
##205
중단
##ith
예상대로
24일
280
3사
801
sc
회사채지수
##106
결정하시기
고객께
약화될
##신용평가
천명
고객께서는
jypark
##98
##도에
177
##보상
자기자본
194
##lop
ind
590
흐름은
##판단
통안채지수
재무부
5651
##국내채권
인식이
국공채지수
##뷰
02468
191
195
상승하는
당기
5003
고려하면
##신용지표
뚜렷
##발행금액
##yoy
##lat
이외
##제품
161
00012
052
302
변화를
##efa
확인할
##항셍
##케이티
본격화
##퍼런스
kbp
##제한
##ition
ann
##콤
360
성장률은
##부담이
nice채권평가
##에이치
준비
##특별시
0bp
cn
##해와
##문제
522
증권전산
0123456
##사를
대차
##위안
투자정보
##여부
##미국10년
연말까지
##수입
##전기
##구간
##했다고
기록한
##이었던
##006500720020006
##옥
##시황
##ᅳᆸ수
예상치를
212
##건전성
특징
재정지출
##oci
금융ᄀ
포함한
너무
##스트리아
괴
##ᆼ진
0510152025
고조
구축
시점에서
이어갔다
##ba
##nasdaq
12일
저성장
020
22일
기대로
완화될
투기등급
순매수를
상황에
버냉키
strategy
##pr
##000
##기를
17일
크다
조정이
주택담보대출
급격히
몰
블
쇼
이다
상원
그림11
전망은
aaa3y
##베트남
기업명
##igg
신용등급을
형태
##actor
두드러
##organ
9bp
래
##셜
##ru
##ᆺ지
176
227
235
26일
##연금
##추세
012345
청산
항목
겪
일드커브
##con
전제
011
매크로
330
호조를
부정적인
디폴트
or
쏠
이로
이르
##기반
1111
061
##회견
##단계
높다는
만약
회복에
##velop
제외하고
잠정
배경으로
점진적인
차지하는
cl
pacific
이혁재
##길
00030
나머지
2385
점과
참가
남아이
금융감독원
6일
p500
##012
서경
등은
##ᅵᆯ레
우리투자증권
프랑
##룸
##mon
증가할
한국은행은
##네트워
회사채a0
##델피아
응찰
biz
point
##93
상업
##아웃
부합
00014
277
##포르
##미국2년
그러한
##테일
재정절벽
##ebond
타이어
monitor
emerging
##타워
##측면
that
보이면서
많아
##공급
신종자본증권
기자회견
##우리
275
##orm
850
증권사
##구분구분
##0a
채권시황
507
여타
높지
달러인덱스
##unt
통화정책에
##회사채발행
다음주
이어가고
##텔레
크로나
curren
he
key
##사태
16일
미국5년
18일
196
##신탁
##ancial
한국산업
##연합
오름
##reas
##소비자물가
##3개월미국2년
smoody
7일
미국3개월미국2년
나ᄈ
여신
276
물가채
부진이
할인
건설사
무역분쟁
접어
순환변동
이평선
미국5년미국10년
##2007
소멸
내에서
우려와
계절
건전성
##심리가
않는다
##ᆫ치마크
민간채권평가3사
##eu
##2006f
##장관
13년
184
237
##00740069
밝히
9일
park
##차가
##약세
이어졌다
##파워
##rial
##국고채5년
아직까지
##먼트
tips10년
주는
304
매물
214
높다고
확대가
공사
법인
관련된
사실상
심리가
동일만기
fre
##프리
정권
##alu
오버
파악
잘
11일
##소매
##계정
개발
통안2년
안정화
베트남
크로네
##트론
##홍콩
cma
##112
##스템
##수수
##aa0
##공업
통안1년
유동성이
보합권
8일
부자
##ude
수혜
##2019
발행금리
의견이
외환보유고
##드라인
620
we
##상태
##부발전
전망과
현행
19일
950
청구건수
boe
##주식형
차이가
점진적
##앤아이
얼마
but
##귀
보기
##안이
##매출
186
투자를
##계열
##라델피아
실현
27일
기대에
544
현대중공업
안정을
koscom
상승률은
##변화변화
##tdy
##ttp
##자수
##섹터
정당
##여력
224
확대를
만기가
되고
투자자의
것이라
김지만
호텔
삭
##00fax
대폭
##중금리
자료출처
예상하고
##포르투갈
총자산
계기로
10010203
##가능성
02040608010012014016
번째
ff
207
오는
##레버리지
국가별
0일
m2
돈
##f3
##ase
부재
염
우려에
소비자심리지수
발생할
움직임이
입장에서는
최저임금
0월
eg
##lg
##ktb
23일
무디스
축소될
유지한다
반영하여
근본
효성
집행
411
wow
##94
##목적
##1400
직후
창출
##ᆼ극화
2개월
term
촉
##프로
##유지
##007a
당선
##억원의
호전
부각될
10123456
##리를
시중금리
##용과
부여
##2011
어떻게
종목은
##네트웍스
☆☆
미시건대
051
2005
290
도시
장기투자
자본확충
##북미
한진해운
프로그램
##ᅧᆼ과
한라
홖
동원
금융안정
장초반
##12월
그칠
##스프레드스프레드
상당한
천계약
모멘텀이
쉽게
뒷
##0556065
다르
베이
수단
단기자금
##ᆼ가능
상향조정
##2018년
다양한
america
드러
##ᅧᆼ색
축소에
351
센터
702
부채한도
늦
채권전략
강하게
226
관건
31일
포인트
감소했다
rat
##bed
##54
##av
##mmf
##ld
506
선순위
것이므로
##텍스
##월월월월
4주전
트리
##e9
##힘
##sf
##lim
##nam
##xx
##은행은
##정책금리
수준은
##되었지만
##등급등급등급
preserve
##othic
우수한
jgb
##크를
##source
##뿐
##전력
##0758
수요는
필라델피아
회사는
repo
관심을
##프라이즈
양극화
헤알화
##짜
유인
1y통안
자금흐름
##남미
압력을
##노르웨이
##00200070007
##베이시스
rati
##ᆸ션
##▶▶
한미
##우디
그림12
##ality
229
장비
국내경기
정책에
금통위에서는
계산
회복을
관계에
##ix
시스템
잡
188
333
##레벨
##손익
바이오
include
공공기관
##이스
##인플레
##후반
여젂
370
감축
5000500
자금을
총재가
컨퍼런스
kt
##우자
##룩
##제과
웅진
197
##발행발행
세금
470
##두산
3년물과
낮아져
##스틸
##에프앤아이
혼합
▶▶▶
##10075
확정
##inresolution
##info
##ilter
장기채
증대
##0069006f006e
합산
수급에
##code
##color
jpeg
본격적인
##imagedownsampl
##imageminresolution
##서울특별시
##imagedownsamplet
903
##br
국고20년
##되어야
증가세를
산업활동
발행규모
것인가
financial
##범위
##man
거시
039
##억원으로
등급등급등급등급
통화정책방향
통안채를
boj의
힘들
##백화점
iii
ted
##우려
그림13
238
242
지속할
513
현대자동차
##utig
##ayt
업황
frutig
미매각률
신용경색
ratio
1주
ef
hm
##사는
대두
보는
307
216
reg
##레케이티
company
811
h2
##ᆯ스
##baa
##이낸
국고0500
##승수
187
25일
인상은
세제
속에
시간당
##4681012141618
##쉬
##자원
306
곧
245
##합계
##종류
##석연
외인들의
장기물의
무게를
##인프라코어
##aytod
##랴
우크라이나
미국경제
##하는데
##역시
이어지는
##450500
상위등급
민평3사
어렵다는
담당자
상관관계
##대조
##제도
국고0350
이후에는
강세에
380
##배율
check
lg전자
010203040506070809
##텔레콤
1회
oil
treas
##ᆨ용
##c7
##만원
정체
했지만
강세는
대우증권빌딩
##상홖
나타내고
코멘트
연합자산관리
8조원
fitch
##tel
##7년
##ial
##지영
##금리를
하락과
222
해도
경제는
성장세를
필요성
##하기도
진행되고
나타낼
##받침
##영업이익
##002000410064006f00620065002000520065006100640065007200200035002e003000200
짧
jin
##ᅰ손
##005
미약
예상되며
5670
확대는
개선될
##하였으나
여부에
대부분의
백만달러
맞물
1주전
끌어
##ᆫ다
232
##영역
1000
##ecb
##ᆼ계획
##스러운
315
346
##가동률
가속
금리변동
208
08년
선별
228
증가하고
cape
회의에서
##ector
##put
##ide
##가계
일평균
##arg
국채발행
100억원
265
271
바젤
낮게
##ecredit
언급된
늘어난
투자심리가
12년2월
엘지
325
4d
##드로
##ᆼ개
##기도
미중
##들도
236
실망
607
배우자
340
민간부문
##ᆻ어
##시각
##주고
##물산
연동
예대
성격
위주의
##체코
285
감세
당사와
축소를
있었던
##ᆼ공사
kb투자증권
##overn
##대조표
칠레
##pp
##인니
경향
순증
##식품
회계
계열사
baa1
케이프
뒷받침
4주간
##셔
주지
미국이
경신
##loos
비고
비상
##랜
239
##당사에서
안심
제한적인
##칼텍스
국민은행
보수적
얘
훼손
발행은
높을
변동성을
등급하향
자금유출
싞흥국
##프리카
egloos
##fy
한다는
090
연휴
0007
219
262
317
성장세가
##변수
china
##onomist
신규주택
낙관적
국고0425
west
##ling
이해
##럴
그림14
##시장에서
월평균
develop
역할을
품
##좌
##ms
대구
##과는
##제강
##일기준
20bp
##밍
##계획
노출
##inn
2184
241
도매
현재당사에서
금통위는
440
##마진
관련자가
남은
제공시점
##ross
읶상
농협
추천종목에
메리트가
701
lo
가지고
##06070809
경기의
발표될
파산
##010011012013
bl
##균형
증가가
주요채권
10yr
가격의
유동화
자국
##0079
##2025
##2535
결과가
##0020006b
급감
회복세가
기록하며
##소비재
여전채aa0
feff00
latin
general
ne
##례
##4사
##세아
##주관
신세계
없다는
기대와
중국은
민주당
##asset
간의
민평4사
##것으로
quality
미10년
1212
##조사
여력
##stock
##연도
##070901
통안02
353
##ames
변경후
측면이
freebond
케이프투자증권
##uk
206
##보드
##감을
##감소
##설비
100102030405
jpy
##차유동화전문1
negative
##메리트가
유사한
보호무역
부작용
##해져
##금속
##은행이
국고채10년
부진으로
언제
평가일
이자보상
baa2
갈수록
순환변동치
지배
걸리
자연
0055
중동
발행액
218
233
##당금
##억원억원
ppi
##균
##잡
264
273
markit
10010203040506
탄핵
##해도
##트진
경기모멘텀
다가
##점이
확대되고
않다는
불확실성을
##02004
##ass
폭은
벤치마크
기대감을
3주
br
g20
균형
학
연중
##터링
확신
255
없었다
223
했으나
반영한
성장률을
불확실성은
종가종가종가
##필요
라는
10000발행
##옥희
종가종가종가종가
710
fore
##슨
##io
##대만
##전선
##금리의
257
5672
산출
##평가일
##엔에스
505101520
성공함
한국산업은행
##트진로
625
##스라
비제조업
314
오후
395
감소로
415
oj
##지속
##리금
016
##부동산
09년
우축
000억
통제
060
##했는데
##테인
상대적인
이번주
##자금흐름
##5y5y
cont
##obl
##콜롬비아
2달
4주
##촌
##수급
##상의
전분기
##제당
은행이
감독
316
##454
결과로
박옥희
oci
버블
##91일
봐
왜
아르헨티나
##ject
##적용
그림15
나아
금융지주
##까지의
809
개선과
표현
##춗
가격부담
수요예측을
구조적
발언을
federal
농산물
자체가
##국가국가
##삼성
group
이끌어
dur
dow
##ᆸ게
##파로
##ᆯ려
##cco
가스
미국을
동향과
지표가
국가의
호재로
연체율
##린트
지에스
한번
당연
274
313
유지하는
완화적인
선물환
견고
방향성을
##짐에
9조원
##mbs
##화에
217
##력한
402
278
2y통안
sun
난
##c6
##ck
##fer
##ya
##년여전aa
##103
제품
확실
##통신
한국과
bpus
234
소비심리
개선되고
1y은행
있어서
ecb는
근로
주요국의
밝혔다
대림산업
##하려는
한경
##않
공기업
##ᆫ터테인
유럽의
##전략은
롯데쇼핑
여건이
밝힘
물가상승률이
##67
##ven
##엠
##인구
전화
##디어
##으면
발행특수채
곽
오재
##1416
것이고
5663
##수요예측금액
##ᆫ터테인먼트
gross
##hb
##인천
금리읶
국고10
050100150200250300350400
259
사모
##reg
2002
바트
490
상승률이
##00200070006f
상승기
##007300740061
염두
ojy
오재열
412
708
http
##812
##하지는
##잠
##한기평
인민
##one
지속되면서
참조
연준의장
miraeasset
corpor
aut
##1종
##ᆻ습니다
주문
대핚
스ᄐ
055
309
기준금리와
높고
공식
##직전
390
나타나는
##자본비율
grow
jh
##ᅳ로드
상승하고
달라
247
288
더디
장기간
stx
##총계
460
3774
##vel
국채선물을
##3y3y
마찬가지로
##인식
표4
##하겠다는
unfixed
늘어날
##777
sand
##010203040506
전년동월비
new
##맹
등장
272
##1600
##002c
##30y
가량의
cons
총거래대금
520
804
##하던
그림16
##진다
##ick
통화가치
과잉
현대로
김현
수익률이
산업의
trading
3년물은
당기순이익
##ᆯ스케어
425
dep
니
##bit
이란
##주시
##안을
504
의해
무난
332
개선으로
##isse
발표한
670
##ᆺ째주
대통령의
##0859095100105
western
##증ᄀ
##js
commer
발행물
모니
292
금리인하를
docdaewoo
##지점서울특별시
##개발공사
##니어론
712
저조
저항
예저
사우디
기업은행
건축
산업재
재무장관
이자비용
잔존만기통안
두산중공업
##실업률
압박
910
##라질
##얼
##투자자
조절
여지가
5675
##icredit
엔터테인먼트
5744
##00730069
##ult
받는
suisse
##00200064006f00630075006d0065006e0074
##ange
부양책
##profile
treasury
720
##ᅧᆷ
##skim
##cpi
##ade
##기에는
국채5y
한국은
##개국
##파이낸
완만하게
후순위채
특별한
센터장
446
sur
tim
year
이들
##싱가
##성인
일별
예상을
은행aaa
디스
국제금융
가파르게
기술적
걸쳐
901
with
쿠
##97
##edd
530
수익을
335
역사
mid
헤지
경계감이
##box
##ᅡᆷ
주력
저물가
231
금융완화
246
282
752
심각
##시키고
등락을
커지고
김현준
406
jk
npl
##use
##f7528
##ysh
040
##진일
##06e
경제정책
540
포린트
##0069006c006c
##되었다는
보였던
약화로
##002000710075
##됐으며
##epth
marble
##6587
##00206587
##결과에
##f7f7528
##0069006e0067
일주일전
pf
##풍
##wak
이메
##전체
int
295
##국고5y
순매수로
##결제
조정을
유입이
5658
##흐름이
특수aaa
이메일
920
능
##bf
##컬
##009
##장원
080
여력이
한국전력
##0715
5504
유지되고
현재는
480
3001
##규모가
bow
공모무보증
미연준의
yskim
##수자
##장비
정기
비관
경제주체
5717
박영
기타에는
임진
##버그
5657
5666
hsbc
gwak
##구심
매력이
5673
403
다우
286
570
김윤
둔화될
##천억원
재무안정성
##12014016
투자수요가
트리거
박영훈
gwak81
jya
nh
##00f6
대성
14년
##앆
##선애
00025
그림17
5677
##ich
##종선
##태봉
김장원
##elee
직급
회사bbb
5654
5664
5661
5668
##7684
30년물
담당업종
##00200063006f006e
jmlee
신용평가사
cooljs
jwkim
annelee
##aluation
jinil
jhpark
jklim
임진균
jyahn
ha
min
morgan
sod
사라
##ning
1010
시도
##전채
##진호
소화
공약
##un0715
5723
##오일
보험사의
유동성을
아닐
건설업
5659
##총리
중앙은행은
##하이닉스
권고
이동평균선
houn0715
interest
sun83
810
fri
goo
govern
source
##bong
##답
시계
##주리
##omysh
하다
증가는
ecb가
회사a
##손해
coolbong
currency
장기투자기관
sodomysh
703
cfa
sigg
wh
##y00
##가고
고태봉
##loc
필요성이
목표치
##프트
##창용
수급여건
1q17
변경전
제외하면
##요인이
일반은행
##압력이
증가를
##여전채aa
곽현수
김윤상
siggy00
mk
##505
이선애
##드는
정종선
508
안지영
수요를
421
7496
각국
손주리
설립
kosdaq
윤진일
이정민
박진형
om
##c0020
##트를
기다
1306
##율을
선성인
반대로
243
국내경제는
603
753
660
파생
##006d007000720065
shpark
##006b00720069
small
재정건
선제적
##007200200064
대차대조표
접어들
##mee
##ng
이승수
시장을
5655
높이는
375
##채권의
이후에도
##지수는
기록하고
건설투자
활발
5669
ligstock
##2y3y
신한금융지주
홍진호
은행권의
취업자수
##룸버그
##wise
##ᅳ래
##대책
중도
258
371
1y6m
329
sk텔레콤
우리가
5656
##verage
전기비
cyyoon
타이밍
탈퇴
esm
꺼
##7454
##자력
##선거
##신희
279
공조
430
1년물
양상이
수출과
640
##ᆨ스포
금리인하가
디레버리지
속도는
정상회담
컨퍼런스보드
bow7454
705
##hj
018
##회계
##데다
##seon
294
751
##ete
5716
손익
01020304
##기준금리기준금리
##거래소
구간에서
01234567
두산인프라코어
전기대비
신흥아시아
shpark777
##e305
##의존
전국
인천
1406
하락은
하락하고
##람
##07e305
총리
2y6m
##ᆼ금채
보유한
종목의
##됐으나
off
##기조를
면밀
스탠스를
##금융공사
있겠지만
싞용등급
soci
ubs
##rd
익스포
한도
축소되었다
은행채는
##하였고
반등이
교체
윤창용
힘을
분기별
근거는
벗어나지
growth
605
푸
##gs
##013
전세계
##원자재
상하
한때
미국미국미국
강도
한국경제의
경제활동
5001
소비재
451
투자자들이
김신희
가격은
##2402
아직은
##수준을
박승현
20246810
폐쇄
##스라엘
ken
pe
영ᄀ
##89
##한신평
##대응
##대륙
상쇄
032
일각
의구심
정책적
##마다
##카고
석유류
씨제이
전년동기대비
##불확실성
모니터링
711
pi
##인가
##상선
##산금채
관찰
그간
##민규
5753
##순영
580
부담은
##넷
##투표
miseon
quanti
koreabond
mkay
미국미국미국미국
quantiwise
##쿠
##va
시카고
##일정
유상
##들로
249
지속하고
aaa등급
유가가
방향으로
##110115
재료가
##실업수당
##fitchfitch
duration
띄
트레이
흡수
##폰
##ta
##저점
##고점
인하는
##아일랜드
현지
560
268
289
##예산
김순영
##amp
파급
kimsy
ws
##있다
이처럼
보아
##시장에서는
322
결과는
##ash
못하는
불확실성에
호주달러
명분
##퍼레이션
최고치
연방기금
무엇보다
응찰률
가속화
312
909
iq
sy
##드ᄅ
##erp
자리
00040
추세가
374
증가세가
이후의
제한할
신용등급은
이전치
##ᆻ음을
머물러
##레케이티제
iinn
##브로드
##eedd
##86
##kr
##리며
##수료
##ommee
017
aa3
서베이
564
##sel
##운송
축소된
334
영향에
개선된
468
##번째
##렌탈
##덴마크
##iixx
ffiixx
##ccoommee
iinnccoommee
ffiixxeedd
arial
##fig
##my
밀
국채는
하락하며
점에
현대백화점
진단
정부지출
수출증가율
한은은
##006f0066
##엔지
5652
발언이
일시적인
##006b0074
지켜보
##2006f006f0066
345
414
규
##fc
##적정
그림18
높일
특정
##oll
진행된
기관들의
##ther
unicredit
저가매수세
4층
##39
##3층
##019
금리정책
##위축
##입찰
2222
##ated
높여
기대하기
판단됨
만기금액
덕
단기적인
396
394
833
960
##0275
박태
app
##shu
nahb
kimhj
영업이익률
525
송
##ᅳ레스
000원
예보
리츠
248
##민간
영향력
327
통화정책은
##바마
기대감은
세계경제는
대표주관
kenshu
904
쌍
이라는
이현수
##싱
기아
조성
070
030
회사채를
나올
확정치
254
증가와
291
##호가
5733
현재까지
여전채의
423
##함으로써
바람직
거래량은
여부가
bnp
금융규제
445
616
lcr
##220
##낮
부품
확충
발행자
구매
365
감소하고
##테크
임승
##00200075
발행계획
출자
추정된다
cpa
중기적
배제할
느ᄁ
재정거래
parksy
유상증
612
912
이른
##리스트
시니어론
##전월
시장금리는
내놓
263
성장경로
이어진
장기적으로
10y초과
##회사채회사채
##osit
억달러
절반
잔존기간
박승영
좀더
축반전
aer
mail
wed
##uide
##리서치
유형
연도
##겠으나
위협
하락하면서
되면
채권시장에서는
##ility
##방식
신용등급이
채권금리가
완전히
10년물은
세계경기
##수익률수익률
스왑베이시스
하이트진로
체코
동일한
덴
물가안정목표
블룸버그
bsi
채권평가
여론
##anp
5679
##틴
변화는
902
505101520253035
천건
일시적으로
증거
##기타법인
latam
0200400600800jan
413
##011
##인용
회사채에
##strateg
##라면
2005년
경제여건
##점검
532
높아지면서
부진과
##10001
##100015
전자부품
구체적인
덴마크
ahn
##님
##a0061
##olo
##시티
정금
##젝
엇
##겠다
408
##ices
물가지수
630
417
860
높아지는
결정은
박애
대우건설
##00640065
헤드라인
##되기는
##올해
생산자물가지수
##overe
##002000760065007200
aeranp
박애란
##port
##d7
##년말
것에
금고
##현상
##che
366
875
##남구
경기부양책
주택가격지수
##긴축
##141618
벌
##어야
##정상
##위를
통상
##내역
##are
예상되고
100bp
##명의
규모로
1q18
금융권
호조로
qe3
##ction
끝나
4년
전세가
어디
연율
##으면서
공동
##코리아
금통위의
328
6001
무역협상
##령화
##수익률은
##국내금리
##추이추이
hk
워
##cent
##f2012
연평균
##왔다
297
456
455
여전채와
gdp대비
정부와
리스크를
##준비금
처음으로
##overeign
medi
훨
##화를
##ics
원금
오바마
추가적으로
##달러인덱스
##00690074
인플레이션이
##00630068
캐피탈사
##ander
설비가동률
분위기가
폐지
국고0575
승인
영구
qf
둔
##명ᄀ
##ry
##이율
이행
값
##부각
##치가
자회사
상승폭
22ma
##공모
293
355
422
##되었기
484
##추가
있어서는
둔화가
한국은행이
집계
##광역시
ba1
4조
917
ac
dis
##1월
##c1
##h주
##지스
시현
보완
금번
308
경제상황
284
결정에
##mir
##유럽유럽
##효과가
국고채3년물
돌아서
현대로템
##나항공
발행한
확대되면서
281
crop
7513
회차
324
##티이
투자자들은
399
##igs
평가된다
50510
##씬
주목해야
sant
야기
애널
##don
##기여
한국거래소
740
보였으나
5662
넘어서
##rp
##지기
수석연
##시장에
유로권
영향력은
##예정
477
##350400
출회
받고
개인소비
all
feff004
배제하기
bnk
품목
훨씬
수석연구위원
bal
est
typark
##ca
##fomc
##저축
##하반기
##인수
##인필
##장품
하여
보증
매년
상승하며
발행종목
283
기대되는
516
385
1q16
##절상
벨
기대감으로
거래량이
꾸준한
##kim01
간섭없이
시장금리의
양상을
ipkim01
##tdytdy
##브로드밴드
유상증자
엇갈
빠르
주변
##정이
##ᅪᆫ리
##10210
재인용
불거
##onden
318
오른
5419
약세거래
김인필
thecredit
요인이다
##천억
##6912
2106
포스코건설
싱가포르
class
박태영
##ondensed
찬
이마트
##해지면서
##전쟁
투자시
장세가
319
그대로
435
##하겠다고
482
##처분
647
모습이었다
##orth
줄어든
docu
충분한
디스플레이
주3
##상스
채권혼합형
예상과
inst
311
자산가격
448
순매도로
실업률은
선호가
변동성은
않는다면
주식시장은
##trading
스트레스
sovereign
will
##pri
##a5
##기계
##사회
것임
화장품
그림19
서프라이즈
331
상황으로
321
통화정책이
341
348
분할
초기
940
bodon
##ungun
장단기금리차
부분이
##002e0020004
하회하는
그렇다면
##404550556065
##항셍h주
feff0055
santander
bodonim
##나마
동조
296
##음료
428
##하였음
보이지
압력으로
##켓
01020304050607
물량이
직접적인
찾아
신중한
developed
애널리스트
745
ca
##등과
##ᆩ액
##mb
##hold
##사이클
국유
##성향
부산
043
##렴
269
증가하는
##ence
##eec
월초
##협약
전략이
지표는
##acs
언급했다
##바이
백화점
##및및
718
aud
ge
액
##sion
##원자력
전망치를
제재
##들과
차홖
강세의
337
369
신흥국의
기조는
##변동폭
money
##노미
##부문의
게재된
발행시장은
포지션을
##칠성
늘려
비우호
불가피할
의장의
pl
##9001
금리로
인터
042
최초
증가하면서
287
343
419
효과는
1001020
계속해서
가까이
전년동월대비
10001002003004005
generale
5조
##상위
추세를
사항
407
534
555
감소할
주식혼합형
반영해
780
위험요인
커버
시작했다
추정치
##002000500044004600200063
##0020005000440046002d0064006f006b0075006d0065006e0074
대통령이
업종별
핵심재료
부문의
dailytrading
##output
눈에
##00740069006c0069
feff005500740069006c0069
911
벌어
##다른
중구
하지
앆
경영
##개별
##력원자력
2003
266
##icen
602
부진을
강화로
리스크는
##심리를
금융시장에
01234
여건을
두산건설
euribor
##허가
접근이
##집행
우위를
날짜
국고0325
##location
##젝트
##ts
기재
상각
##담회
자산의
709
thu
##회사채bbb
동결을
파월
##특수채aaa
2007년
##현재현재
통안dc12
##marks
법인세
예대율
905
fun
gbp
low
흥
1011
##로의
##권을
##금통위
##ones
##2001400
순상홖
경기전망
개선되는
산은
유럽중앙은행
680
##파트
매도시점은
전체적으로
이전에
타게
많지
미치지
##oong
##cdscds
노동부
네덜란드
콜롬비아
##슬람
총거래량2009
디레버리징
can
pbr
til
사ᄅ
##4q
##tings
##곳
주초
##되지는
것과
18년
예년
소요
원달러
339
323
386
둔화에
880
투입
bbva
시작된
##보험사
넘는
short
##칠레
★★★
##은행과
성명서
##페루
발전업
랠리
5개
tile
##oimages
가ᄂ
상무
01y
041
발행사
실어
299
##호조
608
##encode
통안만기
기업들이
배럴
776
##006100720065
##청구
##006e0064
vsamples
고려해
작용했다
줄여
불안이
##ewid
##00700061
##특수강
pageec
##0020004100630072006f00620061007400200065
pdfxoutput
hsamples
##만기금액발행금액
##height
##grayimages
##yoyyoy
##monoimages
jpeg2000
societe
트레이딩
qfactor
##acsimagedict
tilewid
tileheight
pageeconomist
tilewidth
815
port
연기
발행에
모델
지속되며
##agged
##usd
##국고채3년
대응이
##ugh
실질gdp
lg유플러스
유출입
매도전략을
##엘티이
금융통화위원회는
##b3
##kt
시가총액
##유효
리뷰
409
##급등
##ism
347
낮다
##esa
환율의
735
불확실성과
785
마감됨
주가가
낮아질
명확
발언으로
gs칼텍스
##주요국
금리동결
안심전환
0미국
gil
##념
##c9
##ᆼ고
##기술
##일일
한다고
오를
##지표가
이어지며
458
것이기
418
수출은
기록해
조정장
##경기도
##바닥
속도를
삼성물산
일반적으로
케이티
대해서도
reserve
##c11
##jung
##정도
##수력원자력
상기
##압
그림20
372
기업어음
453
##230
391
자금의
##네덜란드
sk건설
감안한
의미한다
00060
갈등
국고0475
국고채3년국고채5년
##aytodaytod
##010011012013014
4개월
##aug
##황과
전까지
##선을
골
투자는
중이다
562
379
##무원
인하로
수익률을
381
416
##00740073
627
##파운드
##규모는
레저
민평대비
##736
##006500720020007
##002000640069
##2016년
allocation
원인은
지준율
그래서
##print
보호무역주의
0스프레드
##ᆫ축
##008
##월물
##사항
상승하면서
국채매입
최악
핸드
##모아
518
자산관리
투자자금
760
요인에
안정세를
보였고
입장에서
##스란
기여도
614
##라지
##드레
##ᆺ수
##한은
한달
동유럽
차기
여전aa
537
535
##피스
##했듯이
##0801
영향력이
단기적
현대건설
##번의
흐름에
skc
압력은
##주택매매
물가상승률은
비우량등급
do
##랑
##ᆼ괴
##해졌다
aa1
##향후
전망전망전망
##신흥
개시
시장금리가
##ory
##ening
지난달
과세
5420
둔화되고
##0072007
##tive
코오
증시는
보수적인
비롯
내구재주문
전망전망전망전망
ar
##누
##c3
##스터
것처럼
아베
예치
##109
여파
여파로
비금융지주
당국
경기시각
##채권관련자금
성장과
517
437
##되었음을
필요할
특수채와
개별민평2년
##자금이
지방정부
삼성중공업
우량물
실물경기
가까운
핸드셋
615
flat
rbc
yim
##3ef
##듀레이션
##ual
##흡
##91d
##인터
##으로부터
것임을
정민규
051015
화폐
중단기
경우는
판단되며
##250300
회수
344
363
##측이
582
메르
부진에
##지주택
교환
##소비자
##48c
0102030405060708
아시아나항공
##shoong
##0065007300200069
##00e9
##2017년
시중은행
##창출력
금리읶상
yimshoong
##살
##푸
##ᆯ류
##☆☆
##되거나
밑
1509
금리레벨
2023
##재무
##보장
변도
상승폭이
답
##ency
bbb등급
되지
등급이
공장
##현상이
463
요인은
자본유출
소비자물가는
대외여건
최저치
근원인플레이션
시계에서
임승혁
##스닥
기울
##요금
##적이다
##금리인상
스프레
회사채가
##aa급
##확장
기업이
금통위가
가격에
선진국의
남유럽
한화케미칼
적용등급
차지하고
##paolo
싶
##부족
1312
있던
053
제출
상승해
추이를
557
이어지면서
635
742
##남아시아
##퉁
bok
문제를
개인소득
##ᆻ음에도
##예상치
여젂채
벨기에
613
aj
bill
cc
##1200
##ᆼ건설
##서히
##미달
강력한
##041
##inal
현대증권
##자산의
398
870
예정이다
취임
중요도
sanpaolo
여부를
페루
20년물
낮추는
싸이클
얘기
예정금액
tue
##62
##70758
있도록
##실질
378
의무
그만큼
758
573
424
368
930
금리인상은
##특수채5년
지금은
##오일뱅크
##지도
##가중
062
지속되었다
대비대비대비
10y국고
여전채는
1년이하
382
제한된
마감되었다
임대
나타나지
##워드
world
테스트
##120140160180200
대비대비대비대비
덜
떠
##0jan
주관
12개월
021
투자증권
##108
납
##its
##액은
성장이
등급상향
개선은
770
gdp의
제한하는
유로존의
속보
##산업개발
불안감
압도
##칠성음료
##주자본
가이
##안으로
금속
연정
아님
국고5
0009
일방
확대와
의지를
##베스트
356
자산건전성
##row
##민평민평
불확실성으로
회사채aa0
허용
##7911
영역의
한계기업
이제는
삭제
가늠
5국고
813
clo
##부자본
##602
##ting
##ox
##되더라도
금요일
서유럽
일년
3년이하
재원
##et1
축소는
452
##티브
387
fomc를
개별민평7년
자본적정
##투신
손절
발생한
구간은
롯데건설
레벨이
플러스
add
##ext
4w
814
##5월
##ias
##화재
##스프
##제약
국채와
##044
높기
545
3333
나타남
361
##00200074
남아있는
비율이
중립적
2006년
##에이션
쏠림
##20014001600
3차
뛰
##c4
##der
022
##동행지수
연계
30bp
가능성과
하루
하락세가
경기와
국고채는
찿
안주
완료
##114
성장에
##된다는
개선세
최근에는
326
현대상선
결과적으로
매수세를
890
생명
대우증권리서치
삼성증권
##696
##itive
공격적인
1미국
느리
트레
##ᆷ에
##팔
##bd
##bn
##지나
##해지는
유발
0100200300
##조작
19년
568
원리금
중국과
##평금리
492
933
후퇴
영국의
경제지표가
최종호가
구조조정이
exit
##가능성이
##젂망
##지점경기도
매파적인
second
##컨센서스
갖고
##ᆫ트를
싱가폴
나아가
면밀히
돼
흔
##per
##해지고
국회
024
00002
##2020
한국남
예상되
3년회사채aa
재확인
재부각
지속된
367
##함을
651
586
char
커져
정도는
##회의에서
전반에
증가율은
측면에서는
##지역의
살아
##기조가
2000년
얼마나
→0
##봐
##3q
##시가총액
중금채
시대
깊
거론
보이나
##eric
033
리먼
##alth
상승의
##금융a
373
##ondition
과열
357
546
802
표명
439
495
안정될
리스크에
자본비율
컸다
입찰이
살펴
##통안채2년
##young
845
##ᆯ러
##2층
##cle
##고객
##스탠
##월드
보도
제로
빈
##채권시장
531
##compliance
목표시점은
안정된
시작한
주가지수
취소
이슈는
왔다
0123456789
뉴스
매매시점은
저가매수세가
무게가
##금리금리금리
commerz
intesa
mor
##따른
##xit
##대구
신임
서서히
하락의
높이고
354
392
472
##uld
합병
##ame
임시
##정부분
신규실업수당
##헷지
재료로
전망치는
채무상환
지분을
혼란
##세아니아
2배
805
군
##hs
##이베
이랜드
##리면서
##인지
어ᄍ
1809
##억회사채발행
3y회사aa
내에
bbb급
500억
회원
523
축소로
##comment
436
매수가
466
665
##uters
591
주택착
##ᆯ린
##빌딩3층
##종목명
얻은
##중국중국
최고치를
##받을
##취업자
100102030
이자보상배율
연도별
##명그룹
803
945
cbo
##7월
##이노
이슬람
##ᅥᆫ수
11년
전이
금리금리금리금리
1603
그림21
##와는
고용과
##loy
##계회사채
##계통안채
##경우
국채계
bpcrs
##국인도
1y은행aaa
1y금융aa
384
완화로
2y금융a
481
특수채계통안채
산업별
##강화
관련해
1q15
기존주택판매
낮아졌다
추세적
금융채계회사채
##shim
좋아
국고0375
##202d
##avg
특수채계통안채계
금융채계회사채계
##롱
##브리
##b1
##쪽
##qe
1409
2025
부산시
경직
##신청
순이익
##연방
497
782
안정적으로
2024681012
아니라는
010203
제공을
헬스케어
별도
비율은
##60일
피해
대상으로
##업체명
두드ᄅ
괴리
찿권
2회
downs
바로
##동결
024681012141618
##겠다는
나온
여기
##0020043
경기기대지수
은행은
##075
물가의
세수
##1013
775
매수를
##옵션
건전
둔화로
모습이
원화절상
##가격메리트
부분이다
국면에
적극적으로
##아웃룩
606
706
##4월
##fil
##싼
##global
##ies
##net
##리지
##여삼
선정
한국경제는
2468
의지
549
기업들은
1y2y3y
433
364
393
478
##하기에는
485
980
하반기에는
직면
구조화
##금액금액
배포되는
이슈로
그리스의
집권
충당금
외환위기
##효과를
제시한
경계감으로
논의가
차원의
아주캐피탈
나쁘
##뿐만
염두에
0영국
ok
##fol
주된
##oman
##원섭
일정부분
##였던
##ors
수익성이
로컬
매수시점은
##eco
830
##배당
법정ᄀ
##ational
##검토
시점은
실질금리
적극적
##년년년년
##회계기준
wsshim
##ᆯ류에이션
롤
##헌
##ge
금리변화
##빈
##비전
##동이
자구
054
036
투자매력
중인
않다고
539
reuters
발표되는
771
443
완화되는
474
조정은
심원섭
유입으로
##한국한국
실물경제
opec
##니어링
연금개혁
tier1
##00600700800900
##의존도
익스포져
0독일
725
gaa
rich
type
##춘
##요소
수수료
붕괴
그림22
067
690
##중심
하락하였다
판단을
중국경제
요건
오스트리아
551
487
주식혼합
667
전년말
##됐던
금리인하에
##바일
롯데칠성음료
속도로
사실이다
##농협
금액은
열려
방향성에
매수전략을
사상최
부도율
투표권
발행잒액
0프랑스
4회
907
##sun
##hand
##00f3
##위아
일조
##0020002
##공조
##민감
338
단기채권형
429
적립
732
출범
변경될
펀드의
금주에는
되돌려
조기상환
buy
차원에서
good
gaap
611
##트리
##되자
##일리
국고0275
##내셔
예고
투자하는
20002004
609
특성
축소되는
5년이하
##예탁
##ents
단일
475
822
##0240
##able
내용을
##264
관심은
##위험이
체감
##에너지서비스
fx변동
스팁
육박
frutiger
두드러지
707
713
820
vi
##즘
금리수준
##만을
미국은행채aa
05010015020025
중국이
오래
10y변동
772
일본회사채aa
442
결정될
790
독일은행채aa
국가들
위험관리
trans
cds변동
전반의
구간에
##것이
존재한다
##최근
가까워
용인
친
미국회사채aaa
미국회사채baa
미국회사채avg
혼조
##현금흐름
##해보면
##생ᄀ
head
flatt
825
lktb
##이엔에스
##스피
##중개
##비고
##조치
1412
채권자금
개월
예상됨
예상되나
없다고
##ical
##포구
##량이
인하의
발표를
##101112
##ages
598
둔화되는
전환되었다
cd91일
탐
민평수익률
어렵게
docx
부족한
deposit
604
812
817
등과
범
##gbi
##not
##리한
##유통
전문
1503
##만이
채권단
미국경제의
##여력이
##경환
경기는
547
579
##오스트리아
388
447
669
730
792
각국의
유가의
우리의
게임
2002040608
##시켰다
##006008001
격차
##영건설
906
lea
sr
##c2
##하려
##김
전력
##과이
aa2
095
1609
금년
순차입금
##aram
##데일리
은행에
##rexit
##ᆼ국채
필요성을
완화에
764
6월말
거래일자
621
안정세
보이기
전월에
순발행을
들어서
견해
이하로
한화건설
시점이
삼성전자
conse
국민연금
##00760061006c0069
##금융기관
컨센서스가
조금씩
부정적으로
홖율
##81216
##myk
##00200076006500720073
bodonimt
617
715
set
꼬
##ker
시ᄏ
##제지
##안에
##104
기준금리의
기대할
##포인트
맊
529
성장의
물가와
358
431
636
638
383
596
독일의
chf
효율
원화강세
간접
부각되고
50050100150200
보통주자본
##7y7y
##에이치공사
##프로그램
##내셔널
sw
##ᆯ로
##4주간
##bank
##dr
##이치
##적읶
대에
##ome
##준금리
아웃
##볼
##속도
##차트
699
금융위원회
장을
주요금리차
물가를
552
표5
만들
##자산운용
342
362
449
465
483
589
##시킨
둘러
단기적으로는
##12011201
##ending
자생
추구
##라이
국내크레딧
신용도
수요미달
1y이하
434
필요하다는
499
보유자산
타격
##3726
조건부자본
7년물
통안dc13
rating
portfol
morning
##ber
미리
##셈
대손
##조엔
부의장
##미래
투자대
##차입
298
구로
##etary
359
순매수가
553
##등락
이어지
##킷
관련하여
이탈리아의
타결
중앙은행이
이자부채
임금상승률
##nsus
극단
일단락
늘어나고
주체별
취약한
##엔지니어링
war
##0d
##tn
##cf
##57
상반
유일
유연
보자
##용도
채권만기
채권혼합
00050
국채금리는
다변화
원칙
201606
정책은
인상과
##0020006e
##00610073
467
592
934
644
##00720074
##수요가
증가율이
##스탄
형성될
진입한
##002000700061
본격적으로
##여전채a
넷째주
##002000520065006100640065007200200035002e003000200
그것이
ipo
밝힌
region
건축허가
##손해보험
746
yun
착
##f66
##f736
##의의
##도입
##적자
019
채권발행
아마
경색
곳
매월
##04f
##개사
60일
셈
493
473
고용자수
922
##울산
##항목
5653
세계경제의
구분구분구분
1990
##올레케이티제
##74205
시각을
##weekly
50년물
호텔롯데
맞물려
4d696
##전채3년
##krw
##prise
consensus
##3726f736
##f6674205
구분구분구분구분
4d6963726f736
4d6963726f736f6674205
816
bail
cet1
des
use
##하단
주에
##장이
하며
채권이
bps
##ᆼ국면
그쳐
336
457
459
약세에
832
##마저
628
반등을
재무부담
##변동성
시점에
증권투자결과에
중앙은행들의
##1012141618
##칠차유동화전문
운용해
초장기물
ltro
경제주체들의
716
car
##즌
##b7
##00억
##저금리
##스오토
##만으로
00001
회사채와
순투자
##라리스
결정금리
50000
5313
축소와
##0809
761
유럽은행
724
못했다
가계의
금융시장은
##the
7y월간
나타내었다
이자지급
입장이다
shin
##4045
행보
공모채
##305070901
neut
##100015002000
##691215
ret
##light
하기
##eres
045
561
않지만
556
장기채권형
571
##티아
변화변화변화
836
##회사채a
이상으로
662
937
지표로
하반기부터
약화되고
임박
순매도를
실업률이
##브라질브라질
##비중이
직전등급
##수출입
##공건수
##ᆫ트럼
꺾
##라리스쉬
변화변화변화변화
645
귀
나라
##ᅢ선
##v1
이데일리
주주
##인베스트
저유가
가처분
조치를
##20075
073
경기지표
##실트론
지속에
지속으로
##00650072
5764
##00730065
##0073002e
##0069006c
##00690067
840
##006f006b0075006d0065006e0074
확인된
sk케미칼
발행기업
정도가
경감
악화로
012345678
환경이
##006b0061
##기타금융채
##향ᄀ
##side
북한의
질문
##cont
##파이낸셜
사라지
neutral
3w
3회
adp
da
녹
##policy
##du
##기구
거치
##부실
063
위하여
754
외국인들의
밴드
349
631
회복과
955
##번지
583
965
688
970
보이지만
전월과
##토탈
불안요인
방향성이
지수는
미국채10년
##iii
존재하는
바닥을
positive
623
818
north
틀
##night
이유가
##로지스
전면
##아티아
##보사
제일
##신한
##ite
다수
##0506070809
의문
때까지
회귀
인상으로
##약품
548
##메르
454
426
852
300억원
##uran
990
587
865
지표의
반등할
업무
유효한
대응할
증시가
발행금액은
내외로
초장기채
유리한
지켜
seuran
둘러싼
맥
##b4
시차를
##부과
025
##erif
나스란
개편
##bp이다
##채권채권
관한
755
432
낮음
397
471
거래일
663
995
599
안정성
##가격은
신뢰할만한
##tial
##기관의
수도권
손실을
##본드웹
기초자산
커지면서
##09012015
10010203040
##스럽게
##20253035
##대륙대륙
##ample
잔존기간별
이데일리본드웹
act
##형ᄀ
##bil
시기에
##듭
##부르
##만건
3035
상승폭을
##itt
692
567
569
실효
통안2
352
개선세가
639
734
821
675
975
##asia
별다른
##철도
트럼프의
예측일
항공
도매재고
##strategy
##기여도
portfolio
723
citi
ver
##6개월
##의도
전망의
전망함
5671
점점
마쳤다
신용sp
542
기업실적
##0020006a0061
##007400740065
감소에
479
585
부담과
##007300740065
936
박근
보였으며
컸던
##벨기에
조선업
##헤알
지연될
##002000700065
현상은
성과를
##002000410064006f006200650020005000440046002d0064006f006b0075006d0065006e0074
##00720069006f
##인천석유화학
찬성
##00760061006c006900740065
##00200070006100720061
##라리스쉬핑
lu
##아ᄅ
국고대비
개방
691
##ink
재정기
##역전
바와
527
427
626
962
744
648
보여주
경제지표의
sk해운
커진
내년에도
매도가
##국고채10년
이하의
##총재의
monetary
비교해
호조에
##북아시아
연방정부
##싞평
있겠으나
시각이
기반으로
curve
##pace
##2001400160018
916
ny
전통
15y
##금리와
강세와
정책방향
769
643
하반기에
##aced
##기업의
약화된
경과
lg화학
조사분석자료의
대통령은
계획을
운용자산
원인이
플랫
기회로
바이백
forec
영구채
박근혜
714
gra
멈
반기
##하도록
##리기
숫
##조금
087
##2022
제지
나선
비판
##점은
않기
통화당국
528
##rok
766
476
664
둔화와
언더
생기
우리은행
정치권
생각된다
1999
##가능성을
핀
맞추
create
충격이
옐런의장
##ubic
preserv
##슬란드
좁혀
##arget
bic
other
##cb
##fin
##kb
##0044
##리온
1206
대립
##산동
0063
상승하였다
발행만기
376
##ergy
도이치
소비가
총차입금
854
857
992
581
593
795
법안
##placed
##투명
##신용도
3q18
근거로
충격을
cycle
숏
corporate
717
els
names
##프랑
##c77
##fon
##a2
##hres
##기회
##윣
##으로서
12m
채권펀드
아파트
##윈
자율
그림23
##edged
##itplaced
사채
##타이어
##006500720065
##comments
antial
##imbox
변화↓
##초구
분포
622
666
681
687
##00640065006e
동결이
##efilter
##settings
내용이
##40020
sk에너지
##imageres
##imagefilter
bb0
##ofilter
##크레딧금리
이전보다
embed
##object
0102030405060
##intent
##66f
##006500200065
##imagedepth
gs건설
##00200053
권역
##007200650073002e
##0020004100630072006f0062006100740020
##생명보험
독립
넓
##002000410064006f00620065002000520065006100640065007200200035002e003000204
##002000e5
##006f00630075006d0065006e0074006f0073
##f500650073
##colorimages
##imageminresolutionpolicy
##imagedownsampletype
##imagedownsamplethres
유동화증권
##직전직전
##0020007100750061006c0069
omitplaced
##007200200064006f00630075006d0065006e0074006f0073
##selector
downsample
##handling
##002000760065007200730069006f006e
bicubic
namespace
antialias
##imageresolution
##002000410064006f00620065002000520065006100640065007200200035002e003000204ee
##imagedownsamplethreshold
5층
cad
man
no
##3월
##트럼프
##9월
##따라
이중
걱
083
부근
1709
074
##분위기
##개의
563
##124
국고채를
##반도체
5yr
524
물가목표
541
장기적인
##키아
998
939
고용률
##천동
919
kr35
##생산성
불안정
교육
방향을
디플레
##외국인과
기본적으로
외환보유액
좁은
파생상품
##350400450500
타겟
915
wind
##ace
##의원
##공기업
미흡
075
선언
당국의
없고
3년여전채a
발행발행발행
##환시
##125
하나금융지주
통안035
##픽
559
##지표는
만도
9월말
655
444
496
461
한은총재
799
위험을
리스크로
자본재
베어
이자율
##지역본부
5년물은
##76f7
원유재고
overnight
##제일제당
사람
0100200300jan
##264202d
4d6963726f736f667420576f7
4d6963726f736f667420576f7264202d
target
zew
병
빠
##나르
##9300
이스라엘
##ᆼ급
##자들이
전달
##일러
##진행
##여금
순위
한국증권
##0510152025
##ᅳᆯ로바
오피스
543
소비지출
577
##태현
초래
597
결정되었다
고용이
##cea
797
앞당
##투협
불안한
외인의
신규주택판매
단기물의
경쟁력
##금융권
설정액
경향이
##ollar
##인터내셔널
dgb
jb
이야
##원통화
027
029
##암
신요
예상하는
200억원
장세
지속하며
유로국채
575
657
488
661
##ley
보유채권
##국채국채
디나르
안전자산선호
중장기적으로
투자심리를
단기간에
##c8b
black
애널리스트의
806
808
are
brexit
sim
##화된
##상단
##과거
##ᅢᆨ슨
조달러
금투협
경남
065
스프레드와
소강
##04c
가능성으로
경제적
증가해
의류
회피
회생
526
소비와
574
기업은
637
389
##0061006d
환율과
##006e0069006e0067
929
전월의
폭을
##30d7
브라질의
고려해야
##00750076
##vered
구간의
힘든
##002000500044004600206587
잠재적
ism제조업지수
극복
이끌
##30673
전후로
쪽으로
##00200064006500200063
상업은행
상승기에
##7684002000500044004600206587
have
##006d00700072006500730073
##07e3059300
최악의
##ecolor
##00f3006e
##셈부르
발행발행발행발행
2w
serv
뜻
펼
##몰
##ploy
이종
##리얼
거듭
##ere
05001
##060
##외환
##ᅧᆼ기업
##ᆫ터카
##데이
경제부
##합의
536
현재등급
만계약
##회사채aaa
938
지표금리
지표물
대출을
주가추이
##거래일
지원을
태영건설
부각되는
실적이
##버린
농업
##핀란드
금융기관의
내외의
##cd91d
낙관적인
유의해야
식료
재정건전
medium
스프레드를
abc
봉
##a4
이론
##자들은
##화가
aaaa
국채수익률
##ited
없다면
inside
554
환매
기업재고
주간변화
상황이며
629
931
967
841
685
400억원
##abs
확인되고
##절차
무역전쟁
상반기까지
영업실적
발언에
레벨에
생각한다
##구조조정
등락권
##종합금융
의사록에서
연방준비
##686
고정자산
발표치미국
형태로
efsf
down
funds
코오롱
재정긴축
iv
soon
쏘
크라
전격
상호
##일까
##일차유동화
##융자
##우주
037
고정금리
##속에
예상하며
##라인
##ᆼ국제강
##호텔
5004
요청
오일
##방안
산금
952
향후에도
831
##uts
868
기록할
674
반영되었음을
741
748
위험에
719
구조개혁
##ations
긍정적이다
인식을
자체는
급격하게
근원물가
머무
지에스이
balance
법정관리
핀란드
##하우
##었던
시리아
0100
028
079
069
강도는
발행된
궁극
##11월
자산을
##2011년
572
##만기만기
498
##조원으로
668
683
871
임기
장기물은
상반기에
국고3년과
실질적인
체크
경기부양을
##에이스오토
셋째주
평탄
주택시장지수
##0123456
807
드
##늘
##경과
##400650073
##클로
수쿠
##제표
##칭
0246
1703
077
##우량
05010015020025030035
중에서
##통상
비록
한국수력원자력
최경환
해야
결제
모집
##자료에
##종료
경우가
real
더블
장기시장
##006f00700
##006f0072007
thnam
935
641
927
791
619
합리
수급이
처리
##편입
과거와
발행기관
불안감이
부각되며
##002000640065
반도체부품
##컨대
휴장
##했음에도
##006b007200690076
##미래에셋
식료품
te
wgbi
##110
##틀
##ire
##서구
10203040506
전까지는
086
##간담회
057
049
스프레드도
##10월
서브
##1500
중에서도
외형
##발언
이후에
중국을
포럼
밸류에이션
은행채의
매수에
859
652
분야
##작용
##렌터카
649
기타금융
성장률과
고려한
남태현
##789
##부분은
경고
##1y1y
배경은
한계가
특수은행
##ancing
규정
전세가격
탐색
run
쓰
옥
##bat
##이전
익
수렴
##일시
092
00080
066
전망하고
##062
솔
##개입
약한
동ᄀ
마킷
통화긴축
채권시장이
유지되는
현재로
상황에서는
현대오일뱅크
역대
773
일본은
441
완화되고
올해와
838
969
642
924
891
sprd
속에서
sk증권
원활
생산량
있을까
나타낸
energy
선제적으로
시그널을
만장일치로
엘에스
유도할
roe
제외하고는
##적용회계기준
##f2012f2012
##102104
##ᅢᆨ슨홀
이종채권
646
kdi
##r2
##lin
##gothic
##지분
##화로
시차
096
091
097
099
그림24
06월
리스트
##여신
달하는
##발생
불균형
주요변수
인상의
현대위아
438
약세는
김지나
653
837
942
887
##tbook
국채선물시장에서는
##교체
유입되며
4분기에
##노동
가령
국면에서
폴라리스쉬핑
5005010015
싞용스프레드
##ubl
##anced
놓고
instit
chartbook
##ᅳᆯ로바키아
##셈부르크
cb
##8월
##lt
##0007
주당
미루
1200
채권매수
035
빛
달러표시
##ord
##포스코
도로
감사
통안1
##116
##코퍼레이션
크다는
은행채와
491
##양시
736
977
작성된
신흥국은
손해
##trade
커브는
##싞의
늘어나는
##efault
촉발
한국전력공사
government
cash
default
이래
믿
전날
##제재
##용선
인용
연대
제1
국채의
이어서
더해
자금은
자금용도
감소와
완화를
869
827
986
사용할
억원억원억원
금융시장이
1m미국
1m호주
boj는
##에스케이
여건은
시기가
잠재gdp
현금흐름
범위에서
것인지
동양증권
중간값
longer
##002000700072006f006f0066
짧은
##006b0074006f00700
##모아제
##006f007200720065
억원억원억원억원
has
li
##tom
##8년
##장을
##낙
##동발전
고점을
선박
##외채
##중반
##모스
##정책은행
##이나마
추이자료
##2502
채권시장에서
바벨
공백
##3년aa
적정기
954
유럽과
968
673
677
작용하며
시작으로
받은
note
된다면
fed의
주식시장의
앞으로도
테일러
##허브
가정할
국고0450
2000년대
표면금리
금융안정에
견고한
##1종5년
surprise
##엘티이제
안심전환대출
뛰어
나쁘지
##생각
조건부자본증권
abcp
0일본
925
dollar
##115
##ft
##섬
##자로
##되도록
11bp
금리전망
026
정의
085
금지
미국경제는
신동
제거
695
동행지수
불투명
##038
무림
신용카드
물가채권
3501
필요는
853
951
부담에
961
743
국가신용등급
##동참
##가격의
선호를
상회하고
##ress
싞뢰
대신증권
지지율
열위
##ifi
레버리지론
후순위채권
leading
##aaaaaa
##싱가폴
##이벤트
918
mat
##ᆨ구
##to
##a9
##ᅳ려
##지방
미ᄅ
미쳐
숨
저점을
##부산
국고0300
중에
경기를
##05d
원가
5y5y5y
##피에스
공통
##2015년
개선세를
우려도
##티리얼
낮춰
산정
gdp가
##ions
991
999
595
##천명
진행되는
0102030405
발생하는
3q17
롯데렌탈
낮아지고
tod
긴급
스위스프랑
##업종업종
경기회복에
면에서는
방안을
##120125
되돌림이
신흥시장국
5y5y5y5y
1만
7미국
der
loc
##ᆷ플
##roman
##gbp
##다시
##갑
##하듯이
숚
수행
대내
##erate
조심
00016
00신용지표
고평가
나이스
선순환
##002000200
##중에
##액이
기대심리
##unic
gdp는
486
994
889
979
896
fomc의
주택경기
과거보다
##됐고
전체적인
장기물에
##vert
신용스프레드의
호조와
관계가
##머티리얼
거래대금은
2004년
마지막으로
알려졌다
보통주
조짐이
##통계국
##항셍지수
##주식형펀드
근본적인
드러내
끌어올
최종호가수익률
2d
aum
kh
에이
##ᆫ스
이태
##ᆼ그룹
##안정기
00005
##ᅥᆷ토
강도가
선물가격
있다면
순수출
##외국
통화량
757
521
물가전망
558
634
##하겠지만
762
462
835
588
899
##mirae
현황①
lg디스플레이
크레딧물의
좋지
nice신평
적절한
찾기
이례
buck
##aa0aa0
##연동국채
어디까지
##공모무보증
##하우시스
2호
3d
##숙
##퓨
##타르
##ach
##아프리카
082
암
050100150200250300
048
전망상향
##통운
소진
##income
도출
신용채권
정책공조
공표
anbi
##오는
##되었음
##urn
결정했다
목표를
728
국가국가국가
fomc에서의
ecb와
##캐리
작용한
주가는
심리를
정책금리를
경기부진
데이터는
전주말대비
##테크윈
속보치
buckle
anbihy
국가국가국가국가
3개
met
##ive
##이표
##ᅡ름
미달
수신
가입
1506
1308
093
추산
698
##중인
3년과
달라질
재협상
영란
##포트폴리오
발표일
##1314
1년6월
완화와
민평금리
##양회
826
반영될
반영하는
721
877
##부채비율
sk브로드밴드
##05001
800억원
보장하지
##엔진
효과에
미친
##효과에
notch
capex
##헬로
협의
위원들의
##odity
##그룹의
민감한
##통화정책통화정책
소식이
국고0525
1000100200300400500
기재부
자본적정성
흔들
forecast
nz
sold
##논
##min
##이정
##다이
##한진
##유형
##투자등급
##선은
자싞의
071
##분위
위치
696
다서
판단하고
통화공급
통안04
그나마
519
현대산업개발
774
851
이상을
885
798
아니라고
펀드는
명시
##698
상단을
노동시장
##앤지
##느냐
##년년년
과도하게
##ize
취업자수가
경로를
프로젝트
결론적으로
열어두
tier2
총거래량2008
대구시
piigs
쌍용
자산관리센터
일방적인
구로다
946
valuation
팔
##드리
##700
##les
##가가
보이다
##107
##딜
소프트
한국투자
3y3y3y
경기여건
본다면
100억
않으면
의사
의료
과다
##물가지수
5738
발표했다
777
결과와
632
향상
855
##졌던
증권선물
672
679
842
부진은
수요예측에서
급등에
boj가
qe2
const
진입할
중기물
있겠다
유의미
비슷
##머티리얼즈
3y3y3y3y
6조
m1
팽
이길
##지준
##요건
##상대
##주별
상하이
15bp
하에서
##조정과
02468101214
채권퉁
##미매각
기준자료
여유
본원통화
경제활
달러가
달러의
538
7743
일본은행
필요하다고
767
높아짐
987
제한되는
781
진행됨
주택금융공사
유가는
구조적인
##ives
##337
발언과
##서비스업
고용지표가
국민주택
통화정책회의에서
##대한대한
관세부과
century
##out69
기자간담회
##ruct
능력
가처분소득
soldout69
0조원
5개월
bet
dw
factor
##다운
가산
1501
038
1820
중남미
한국신용평가
하락폭이
모형
##운동
7509
옵션
인하와
##대비앤지
956
소비자신용
867
731
가격메리트
결정이
기록하면서
686
689
##천시
793
##론이
보여주고
주택매매
chang
##amb
sk하이닉스
자본금
약화되는
못함
생산성
##ᆯ리엄
코스피
카드사
여부는
투자전략팀
##cid
예측금액
fta
##현황현황
국유기업
통안0359
4d6963726f736f667420576f7264202d203
수쿠크
##ublic
##다이모스
618
dem
ns
q1
울
히
##bu
##qq
##사이
상한
088
034
투자수익률
강남구
##002005
달려
##등급하향
##타이
약간
##모바일
성장둔화
##명목
576
5773
##생활
##크아웃
##ᆼ깃
778
4444
765
##app
737
932
829
926
978
대출금리
토지주택
호주의
나타내는
않았지만
코어
부분을
unt
윤용선
이벤트가
행사
라틴
크레딧시장은
##ustral
##한화증권
frutigers
##향검토
##에이스오토인베스트
##프ᄅ
##rb
##que
##수단
024681012
##2004
자원
00070
리테일
나스닥
변함
한국기업
한국수출입
최광
693
##개인
##개편
다수의
오전
##1300
##1313
낮을
낮다고
credinal
연준위원
959
469
##킹
주식과
수출의
covered
요인들이
943
749
972
895
강화된
전환될
유입될
##off
##밖에
많다
나타냄
3q16
##ovish
##독일프랑스
계속될
변수가
심화될
상태에서
##항공우주
고정투자
##시간대
##ake
선별적
일각에서는
##청구공사
##010011012013014015
##봐야
##이정준
914
떨
##냥
##f8
##ould
##ᆻ었다
##국제
##대외
023
등재
##중수
달러로
등급의
##등포구
유지했다
올려
858
584
594
목표수준
947
783
두바이
아니지만
##국고채10y
최저치를
북클로
##시키기
우호적으로
패션
2206
교역량
신흥시장국의
##ormal
엘지디스플레이
저조한
##791113
이길영
7회사채
el
kp
tren
##e4
##e043
##wti
##ncc
##에만
##자기자본
대미
##원시
##부도
##미포
그림자
하락해
##bp로
만기1
##민국
등급을
##등재
유지해
state
분쟁
초저금리
763
849
##천ncc
투싞
심리적
##인도중국
##07080
맞춰
국민투표
one
##fxfx
자극할
독자
##mirmir
안주원
회원국
lucid
bus
##emea
##cer
##ian
##지위
##유율
보며
##신이
상승시
비제조업지수
예상했던
하락했고
장관
불가능
증가하며
자산별
578
5707
포워드
역축
953
839
수출경기
##추천
있었지만
usa
881
어려우
보였지만
보유기간
##학교
##0200250300
리스크와
##페인트
원화채
기조로
##산업생산
중요하다
추세는
##maker
생각이다
상황이기
02040608010012014
##0억달러
재개될
쌓
##utsche
##대비앤지스틸
##이정준02
foc
jo
프라
##uf
##lack
수국내
##세에
전에
부처
072
신근
기준치
0306
##102
빚
697
발행어음
경기동행지수
굳
756
##25456
##국고10y
정책과
5767
##순우
기업대출
최근까지
발표일자
##틱스
##태국인도
약세의
적은
평균임금
671
682
893
897
872
종목별
확인될
##비율은
평가사
위해서
##국채선물
기대감에
주가와
##광실업
단기물은
supp
연결기준
예금금리
매매현황
권순우
에스에이치공사
금리와의
##페이퍼
##희망
의장은
확장적
제기되고
이루어질
실패함
질적
##해볼
level
1001020304050
richmaker
soonwoo
신동준
local
##698100
최광현
신근호
매매현황crs
3차례
ab
잭슨홀
퇴
혜
##경ᄀ
미결제
스스로
부상
##표표
##보도
##보호
자동
##미뉴
068
0699
고령화
제2
3y캐피탈채
윌리엄
동아
##점에
의석
##연동
##합병
공산
발표가
변화의
464
888
##level
동결로
아직까지는
달러화는
지지하는
배경에는
성공했다
늘고
단행될
보험사들의
대형은행
##누적순발행
어려움을
구조화채권
연대보증
704
bm
##프리미엄
##2q
##sup
##│한화증권
이혜경
주거
##대의
##치게
1403
00p를
신속
여겨
은행들이
##공단
확대되며
bbbb
작은
인상할
##rol
현재와
stat
만들어
659
##마감
##충격
부담스럽
부담스러운
반영되어
928
국가채무
fomc회의
##americ
소폭의
토대로
인플레이션에
정도에
연속적인
##대로티
##count
가중평균
철회
하회하고
위기의
배경이
##개선개선
투기적
oper
아주산업
자금유입이
금호석유화학
맊기
북클로징
etrade
sector
##지난
##화의
##01002003004005
##유틸리티
1208
유력
하면서
인사
채권fx
##소재
조합
경제를
실세
크레딧글로벌
##베스틸
공적
##예보
크다고
##0020006d
this
방침
##마니아
678
848
지표들이
600억원
처분
##00720075
임명
cds달러
cds인도
악순환
신규고용
지방공기업
##283
공급이
점검해
구조조정을
convert
방향성은
실시한
##ption
투자의견
외국읶
##소매판매
메르스
여기서
nzd
069960
2h
823
am
sen
tex
##d3
##어질
10101
연구
아프리카
07년
예외
047
개최
국채에
##금융시장
##중남미
##개로
금융회사
완충
판단이
##근원
센티
779
필요해
834
982
941
676
726
안정에
강화되고
폭락
반등에
기관의
##슈팅
전체의
700억원
지역의
논리
위축된
집중될
##하이텍
극대
오르지
times
##개별개별
생명보험
빛을
7국고
det
il
겹
##new
##yr
##화폐
주고
##용구
대략
자유로
링깃
가능하다
##중중
##atives
의원
##endi
##민주당
##된다고
목소
자산전략
##분기분기
산유
##오세아니아
감소가
656
494
948
949
921
788
789
878
전일대비
줄고
문제로
##거래량
급등한
발언은
듀레이션이
듀레이션은
듀레이션을
##메리카
템플
면세
기회가
장외채권
방식으로
시그널이
상승압력을
대기매수
삭감
혼합채권
쿠폰
##110115120125
쏟
##미포조선
focus
템플턴
1차례
6년
9o
923
gm
gold
##li
##유의
##나는
하강
하였다
그림25
예비
투자메리트
투자메리트가
##stat
##차이
내내
해서
국내은행
##채권금리
물가연동국채
오성
think
##작성
평균치
966
747
727
줄이는
회사명
##씨티
##06080100120
##졌다는
##메리츠
스탠스가
핚국은행
오름세가
##2019년
##자원부
##한기평한기평
##한신평한신평
##명그룹명그룹
##endix
##bers
1210
1309
##안의
잒
회사채발행
스프레드스프레드스프레드
3y여전채
사건
##bp까지
##1212
통화당국의
##1111
정책당국
5년초과
은행채를
산업통상
828
844
883
전환된
미래에셋캐피탈
나타나면서
##mium
##산업의
발행과
기간이
정도를
카타르
상회할
frm
포지션이
통안0328
양국
채권투자전략
막기
유의하여
50005001
##설비투자
풋
##산금채1년
##헬로비전
1회사채
cs
day
dovish
ev
hold
pow
잃
##화될
미청구공사
전혀
##비농업
081
채권관련자금
발간
발한다
078
회사채자금흐름
전망하향
일어
한국시간
##하고자
동월물
read
유지하며
필수
발표내용
654
658
624
739
기록했고
796
리서치본부│
##abor
선물을
샌
본드스왑
스페인의
방향은
1m국내금리
철도
위기가
급락에
신한은행
##기타유럽
보임에
받아들
수입물가지수
풀무원
##해왔다
##매출액
fitchfitchfitch
##icenicen
##드레드레
##0410064006f00620065
##스프스프
##업체명업체명
##가격메리트가격메리트
##아웃룩아웃룩
view
##종합금융증권
혜택
스프레드스프레드스프레드스프레드
fitchfitchfitchfitch
4개
##cs
##pmi
##901
##form
##ytd
이며
이라
##하므로
대량
지명
##동남아시아
##동북아시아
##2002
미국10년
076
경영ᄀ
##왔던
##aar
제대로
##여수
변곡
소극
##심을
무시
장기국채
이벤트를
300억
##urch
993
9999
964
729
882
787
안정성이
조정될
892
898
동결될
수요예측에
선진국과
지원가능성
신용스프레드가
이자소득
101234567
어렵다고
##철금속
##기관들의
eps
중립금리
지금까지
보고서는
원화채권을
라고
전년동기비
includ
agg
기자회견에서
산업활동동향
eff
달라진
##싱가포르
현지시간
기아자동차
걱정
한국기업평가
nim
##나로
##619
##1c
잉
##리ᄏ
주봉
##사용
##상사
가진
##납
1304
084
추석
058
0501
##ana
사유
금융불안
##연장
##연초
##연가스
되면서
수준이며
물가지표
평가를
환헷지
기업에
종전
감소하는
완화되면서
958
올해는
996
722
##175
786
조정에
전환이
전환되는
통해서
인플레이션을
활동
움직임에
긴장
from
추세적으로
##지역지역
##없음
##림픽
시사하는
열린
##연준의
행정부
##재정수지
expect
butter
한라홀딩스
접어들며
##10001500200025
권역별
산업통상자원부
4사
913
g2
me
nikkei
끼
##ᆸ터
##cap
##job
##되던
##원화
1500
한정
000은행
그림26
##구성
전망되나
##억월
예상되기
내재
##실효
했고
200억
이후로
때는
75bp
##코멘트
표준
은행채3y
이상이
##ute
824
981
886
884
202468101214
매도로
##788
업계
무보증3년
4분기를
이렇게
1m인니
태광실업
부각된
##광주
추세적인
##2y2y
일반적인
##철강
이어가는
차이신
변수로
통계국
국고5년국고10년
충격은
가팔
produ
ba2
사례를
##머셜
민감하게
수출입은행
commodity
비둘기파적
brl
인터넷
##종목명종목명
도이치뱅크
앞당겨
dwsec
10101010
5억
dot
gre
케
##ures
##call
##har
##valuation
##지와
##시설
상충
##젠
조항
##내년
064
##계동
상승했고
한국토
하락폭
은행들은
의지가
도소매
##03y
##종의
그치
등급간
stones
향방
특수채5y
둔화는
아니며
이번에는
##시킴
헬리
상회하며
123456
새롭게
발행물량이
기인한
##찿권
할인점
코멘트는
더딘
역사적
##예상치예상치
셈이다
이야기
##ployment
texpl
stoneserif
##sb
##fly
##의견
미디어
##로부터
##상운송
상저
##일수
현대비앤지스틸
기준금리기준금리기준금리
##ses
모아
##당이
달러강세
원론
기대하기는
##감으로
##약화
자산정상화
##콥터
##0020006c
##오고
957
489
3월말
거래금액
##006e0065
##006e0061
984
985
989
반영하지
973
건설지출
금융시장에서는
생산자
7001
얻을
##특수채특수채
발행시장의
차이를
활용할
임금상승
##market
겪고
6070809
##00790074
time
느끼
discount
##이노텍
##305070901y
헬리콥터
bw
ban
dr
fng
lh
line
뱅
##b2
##ᆻ든
##이행
주후반
가질
##준비율
##일부
##아아
##안정을
미국에서는
##우고
##alat
결산
국내경제의
##0523
무리
변동분
##1301
7777
방송
반영할
반영하며
재정부
지표들의
국가들은
이번에
브라질은
통안채는
내년도
불안에
##10y10y
##main
하회할
연결될
##압력을
막판
##12011
의장이
prtf
print
02004006008001
빨리
##euro
잔존만기통안03
송파
##등락률
##ittee
쏟아
기준금리기준금리기준금리기준금리
fnguide
2개
2국고
5주
g7
max
다르게
##넘
##part
##ror
##짝
##ᅳ림
기능
가동률
징
금리반등
13bp
##산구
서로
소유
국채금리가
기준금리와의
##환매
##sen
##문회
달러대비
##레이트
우려할
##450
##태제과
자금이탈
##청구건수
기록하는
불확실한
684
##은행채3년
복귀
cd금리
움직일
젂체
측면에서의
상회한
완만할
정상화가
정상화를
시사점
##호주한국
저축은행
금융기관채
단행할
업체들의
아래로
base
indust
계절적
거시경제
georg
흥행
크라운
5배
##ric
##●●
##이하여
이격
##ᆼ관
##갔다
##었고
##대형
대를
##물은
조정과
자유
등에서
10년유로
##실제
불편
##관세
작동
51015
수요로
단기영역
수익률수익률수익률
감소세
##ᆼ금융
738
coun
944
spot
krx
매도를
##국고채20년
##변동변동
잠시
mir
대응을
##프라자
premium
##착륙
근접한
회사채aaa회사채aa
##내용내용
읷본
논란이
참가자들의
오버슈팅
주지하듯이
##엠트론
##민간소비
document
공모채기준
butterfly
수익률수익률수익률수익률
def
nor
멀
##4c
##total
##촉
##크리
##테이
##land
##전신탁
한매도
094
채권매입
##2003
연관
05us
##1515
중에는
com윤
##stem
외에도
2001년
국고채5년
##못
동국제강
감산
좌우
추이추이추이
오리온
감소하면서
##웨어
847
제한되고
794
2026
##되었다고
하반기로
보여준
자본이
원화의
##잔존
기존주택매매
롯데케미칼
원자재시장
##없는
연초부터
차이는
미매각이
eurostat
##outlook
0100200300400500600
빨라
0102030401
##비고비고
쌍용양회
##미늄
thinking
추이추이추이추이
트레이드
##몬
##020
##cmyk
##ᅰ스터
##이선
##00123
10개
미시간대
##인이
수가
##조성
1310
스토
자기
회사채명
전망이며
제주
##ination
금융비용
##05e
옮
세법
장기금리는
장기금리가
총부채
현대캐피탈
현대다이모스
자금집행
##00740075
증폭
##추세를
금리인상의
843
둔화된
후행
독일과
위험은
873
어떠핚
##0075006e
직매입
##ria
유입되면서
젂홖
악화될
공급과
공사채와
낙폭
##북구
도입에
##기조는
경기회복세가
##00610064006f0073
gdp갭률
##0020004100630072006f006200610074002c
평택
##변경일
관건은
0102030405060708090100
##0020006b00760061006c006900740065
특성상
고정자산투자
한국수출입금융
한매도전략은
846
sib
vkospi
▼▼
##ces
##있어
잇
##같
##맂
대주주
##과정
##업계
채권잔고
스케
부가
일제
##069
노력을
##중부발전
##문구
##05101520253035
관세를
요컨대
##지표의
크기
방지
##apr
##처리
금리인상과
전략적
##ᆼ공여
##ibks
600억
부채의
통안채와
약화에
##절하
있음에도
순발행액
문제에
들어서는
##씨씨
규제를
##이어서
레벨을
##되기도
##60a
하단을
테메르
##린다
##참가
allow
탄력
##이라면
소수의견이
committee
단순히
02468101
두드러졌다
비상장
권고한다
##팔차유동화전문
##ᆯ린더
bir
case
gain
숙
##pos
##wang
##003
이연
이라고
##다지
10주
##적이고
대다
##과세
##재단
##소프트
회사채회사채회사채
고용ᄀ
투자할
나ᄂ
##후약
강경
개념
국채시장
외에
없기
##직원
낮출
김중수
633
분리
866
983
976
##ular
보이던
위험가중
청구
##카리
이틀
발생했다
##국채금리
##보험투신
볼드
인플레가
생겨
##기대가
국면이
상태이다
##최저
##도시설
살펴볼
조치가
적자국채
성과가
##잉여금
소식에
이용한
상승압력이
지배구조
peer
근원인플레이션율
##1013015
dest
purch
##4y
##bg
##bold
##f9
##fd
##hedged
##ᅮᆨ셈부르크
이사
##ᅡ루
상실
##금주
##전년
유예
##물자원
0904f
##아야
채권순매수
부총리
##움직
공감
##렸다
##stone
가능하다는
외채
없지만
지속하는
##정책을
정책으로
변동에
소비를
자산에
##플래
##던스
크고
때문으로
약세와
회복될
유럽유럽유럽
863
861
##전망하향
974
weeklybond
##강후약
할부
감안시
board
재무적
유입된
##은행채여전채aa
규제가
##시스코
그룹의
매입을
의미가
여부와
시기는
종합적으로
##상황이
대표적인
##ident
뉴질랜드달러
##c528
그것은
타이트
##tdytd
##저축은행
##tdytdytdytd
gilyoung
##commentcomment
##프란
reader
잉여
0904fc528
유럽유럽유럽유럽
camb
vo
vix
ytdytdytdytd
프ᄅ
휘
##dist
##way
##ward
10조원
##화는
##숚
수탁
전고점
##원을
##금을
한차례
059
##왕
고착
중후반
##속도가
개연
없지
##055
않게
##지수가
##113
대비할
6666
해외투자
862
cour
요인을
988
비중확대
##oss
지표를
사용목적
##규모를
##잔여
낮아지는
unhedged
##48505
메리츠캐피탈
시기를
협상이
위원이
보합세를
테러
손실이
##0708090100
미매각액
##49698100
##일자일자
그렇게
찾을
둘째주
한솔제지
웅진홀딩스
주택착공
주가추이60일
##적용회계기준적용회계기준
떨어진
회사채회사채회사채회사채
din
dungun
러
칼
파라
##ted
##c79
##jun
##ᅳ루
수용
상방
유휴
098
##보는
##욲
고성장
달라지
않으며
영향받을
5771
##robat
##00200066
분양
##키스탄
목표주가
기록하였다
879
진행되었다
개별민평10년
수급부담
##asans
##007200e9
반등은
유가하락
##553
##에스모아제
sands
san60
인식과
연초대비
1995
심화되고
##00650020006b
청년
##007200650061
##대한항공
늘어나면서
그렇지
##20y30y
기술적인
##002000410064006f00620065002000500044004600206587
price
##002d0044
낙찰금리
성향이
mode
풀이
오름세를
sandungun
acrobat
##00200050004400460020006300720065
feff005500740069006c0069007a
변동금리
##002000740069006c
institute
적정기준금리
나이스신용평가
##이표일
##131415
lucidasans
상저하고
pay
tax
val
룸
##ᆷ돌
##바라
##휘
##bel
##해지
##해상
##기존
##성자금
전강후약
##제를
##전전
어째
정이선
있듯이
채권별
및및및
056
현저
##딥
선회
비금융
##찾
##iness
내세
2400
지속됐다
약속
하나에프앤아이
##당의
##공제
의도
구리
판단하며
##070
밖
순매수했다
##순포지션
fixedincome
864
971
##0210
하반기에도
캘린더
irs3y
irs5y
동결할
##학재단
주택판매
chung
출하
##국고채금리
##국고채1년
시점을
3ma
받으며
측면에서도
포함되어
leesun
석탄
##스턴
집중되어
자산운용사
##이탈리아스페인
##20102010
지급준비율
통안dc11
대림코퍼레이션
탈피
인민은행
트렌드
경제부총리
지에스이피에스
영란은행
trends
및및및및
0jan
4대
caa
hard
normal
깨
##뮤
##있
##시대
##드시
##원의
보조금
아무
예상에
##임에도
하락했으며
##128
확대됐다
이후부터
##건강
##감은
bondstone
그쳤다
인하할
유지하기
##방법
90년대
적지
963
819
876
전월보다
확인이
##하면서도
##수익성
markets
##2486
인플레이션은
견실
삼양
미치고
cpi는
##이었지만
연말을
단기물을
담배
##멕시코브라질
비용이
떨어져
타이완
알려져
##높은
우리나라의
혼합주식
미약한
loan
##regate
심각한
성장경로의
##노믹스
상무부
flatten
시퀘스터
##102104106
경제활동참
dct
→1
##hmc
##한전채3년
##인다
##정밀
##대표
전구간
0246810121416
##동서
채권등급
채권수급
##안은
##우하이텍
신정부
일봉
##염
10년금리
694
시장성
반드시
했던
높이
40bp
달러에
경우도
중국경제는
759
채권시장을
기업경기
올릴
결정된
2년6월
인도는
확인한
kr3
부채를
##갈등
압력에
##버블
재무지표
##경기선행지수
##은행채1년
장기물을
취득
##이었고
under
줄어드는
불가리아
20y국고
출발했다
방안이
보수적으로
##eaut
차례의
##특별계정
수요예측일과
한솔케미칼
돈을
system
##전월말
비롯해
보통주자본비율
##태제과식품
destination
9국고
##아르헨티나
##풀
##0f
##condition
##pdf
##d0
##싸
##성ᄀ
##서부발전
##시는
미정
##사일
1100
한반
##물이
그림27
나와
234567
##체계
##0533
##00650075
기대수익
##포함
에는
인상될
##말말
##4515
표6
현재현재현재
낮다는
주식펀드
##양과
건수
6655
733
고용동향
인도의
진행되면서
강화에
재무제표
기존에
취급
부각되면서
편이다
투자심리는
금리상승이
농축
##이기도
##대한통운
공공부문
japanemea
##붂기
뚜렷하게
부합하는
##유효경쟁률
얘기다
##미래에셋대우
##생각대로티
국민주택1종
aggregate
##프란시스코
현재현재현재현재
9crs
average
fl
iec
##메이
##4ee
##4ef
##4f7f7528
##215
##7ac
##5007200
##548c
##pages
##9006e
##rimbox
##기아
주를
대륙
짂
지목
##죾
##괄
상이
##나갈
금리급등
하겠다
##치전기
##앞
089
##소원
자제
000aaa
000100
##edbox
##edepth
투자와
##20일
##002003
##bb38
하락세로
사고
100120140160180200
하나은행
차단
도드
##073
##250
##255
##dpage
##rofile
금통위에
yoyyoyyoy
##007400e9
##만기일
완화된
##00610020006a0061
둔화를
##18cea
##006400610064
##abox
##4002e
##872486
##00260a
반등하는
##0075006f
##007500720061
내년까지
##imagest
##imageaut
복지
민간의
측정
##006500720074
##0065006e0020006d
##embed
##ad85
##ad872486
##0070006f
실적은
측면의
헷지
##7300740065
##보험료
천연가스
##00630069
조달비용
##853ef
##21b5
##0020bb38
##삼차유동화전문
현실적으로
##370523
##illerp
##49ad872486
encode
##006c006c0065007200200
feff4f7f7528
##ike
##overprint
pdfxtr
바꾸
##profil
##00200076006f006e
##002000610076
##007300740069006c006c
상관없이
##0020006f0070007
##ownsampledepth
##002000730075
##007000720065007400740065
##유플러스엘티이제
##indownsampledepth
##00660074
##006600690067
##imagemindownsampledepth
##f5c6
parsed
##2e4002e
##ediabox
##0061006e002000e5
##sccomments
##efa7ac
##200720075
##94e9
##54f7f7528
##002000410064006f00620065002000520065006100640065007200200035002e003000200065
##002000410064006f00620065002000520065006100640065007200200035002e00300020006f
##00200070006f007300740065
##00200064006f00630075006d0065006e00740073
##00200064006f00630075006d0065006e00740069
##profileselector
##00200063006f006e006600690067
##c0020c79
##006b0072006900660074
##산금채3년
appendix
대표주관회사
##00640065006d
##006400650020005000440046002d0064006f006b0075006d0065006e0074
##올해올해
feff004200720075
##ca66f
documents
커버드
##0020004100630072006f00620061007400200065006c006c0065007200200
pdfxoutputintent
pdfxoutputcondition
jpeg2000gray
jpeg2000color
##00740073006b0072006900660074
##00650073002000690020004100630072006f00620061007400200065006c006c0065007200200
전년말국고채1년
srgb
##arams
##002000520065006100640065007200200035002e003000200065
##006b006100700061
##00720069006f007200650073002e
##c774
##fonts
##006500720065002e
##ofilterstrategy
##objects
##002000530069
##0020004100630072006f0062006100740020548c
##002000410064006f00620065002000520065006100640065007200200035002e003000204ee553
신용공여
##c8b2e4002e
##30d730
##ecolorimages
##tomediabox
##gbprofile
untagged
##offset
##61966
##1c13
##b2c8b2e4002e
documenten
##4c18cea
##distillerp
##002d0044006f006b0075006d0065006e0074
어쨌든
dctencode
##특별계정채권
iec61966
##4ee54f7f7528
##50072007300740065
yoyyoyyoyyoy
##00260a853ef
##imageautofilterstrategy
##ad854c18cea
##21b5efa
##0020bb38c11
##49ad87248672
##007300740069006c006c0069006e0067
##f5c6210
parsedsccomments
##efa7acb
##94e9b8
##00200070006f00730074006500720069006f007200650073002e
##00200063006f006e006600690067007500720061
##c0020c791c13
##ca66f49ad87248672
##0020004100630072006f0062006100740020548c002000410064006f00620065002000520065006100640065007200200035002e003000204ee553
##distillerparams
##4ee54f7f75280020004100630072006f0062006100740020548c002000410064006f00620065002000520065006100640065007200200035002e003000204ee553
##50072007300740065006c006c
##00260a853ef4ee54f7f75280020004100630072006f0062006100740020548c002000410064006f00620065002000520065006100640065007200200035002e003000204ee553
##00260a853ef4ee54f7f75280020004100630072006f0062006100740020548c002000410064006f00620065002000520065006100640065007200200035002e003000204ee553ca66f49ad87248672
0crs
9개월
bls
web
춘
##3203
##pc
##dj
##line
##000200
##자리
##시아ᄅ
주시
주에는
##되지만
##대전
01신용지표
##아주
##보면
##선으로
##분양
04수요예측금액
##15y
##log
상승폭은
등도
##개정
동행
##영화
##홈
횟수
##0800
51y
##되었을
4952
완화가
완화기조를
회복의
##회사채3년aa
규모와
기록했으며
784
##란드ᄅ
영국채
영국10
##완충
수요예측은
기조의
전체채권
복리
선호로
레벨에서
악화된
악화되고
속도에
##기금특별계정채권
##철수
##충당금
비율을
알루
은행과
회의록
##귺
##백만
중반을
연방금리
prev
원인으로
차익거래
비농업고용
줄어들었다
기반한
관망세가
##ishin
##제십일차유동화
정권교체
세제개편
corporation
지켜볼
답변
##특수채5년aaa
246810
꼽
daishin
grav
현재로서는
미뤄
##예보5년
볼드체
sol
득
##룰
##팽
##끼
이소원
##ᆼ교
##는다
##기기
##정지
1112
갑
##준칙
부총재
##152535
여지
노이즈
예상됨에
22개
경기민감
높임
ibk증권
약간의
안도
기댄
##036
축소되면서
refin
자산이
##말까지
통화정책과
높아짐에
고용은
고객예탁
국가들이
수요예측금액
##견인
##됐지만
##embi
대응하기
원자재가격
##04004
모멘텀을
kb금융지주
adv
뿐이다
합의가
##경쟁력
202468101
##하나마
그렇다고
##현대제철
상존하고
고민이
발표치한국
##국민카드
##국민1종5년
아이슬란드
roa
매물이
파악된다
##aytoday
##것으로것으로
산출한
봐야
##상승기
##aytodaytodaytoday
어쩌
leave
더블딥
todaytodaytodaytoday
굳이
purchase
gravity
1국고
셔
티
##아라
##샤
##ev
##kwang
미니
##성자산
##세율
대의
유진
##부양
aaaaaaaa
채권으로
국고30년
비철금속
소수
한국항공우주
3y이하
시장과
##sem
4022
엠
##감에
여전한
축소세
세전
자산유동화
표결
##오차유동화전문
12월에
이상인
874
남겨
##불가
##불균형
4분기부터
##version
않았다는
왔
당분간은
주식시장이
##303540455
상황이지만
활용한
매매가
##20160200
##6m이하
분위기를
첫째주
당장은
해석할
central
##읷드
##01234567
동양종합금융증권
응답
parib
가져올
표면이율
두드러진
학술
조정장세가
공장주문
##컨센서스컨센서스
투자대안으로
##35040045050055
##물자원공사
ob
##6y
##a3
##rm
##len
국책
저점으로
대전
대여
대중
전액
##물을
##산전
##낼
##분을
##ara
3y회사
발행희망
본질
동기
##감축
무관
수요에
만만
##cho
매수로
##1617
거래금리
997
고용증감
동결과
주택지표
폭등
change
eu정상
##신용스프레드
##tier
##루브리
##2706
##이었으나
이자수익
##안정성이
연말로
삼성생명
##국내국내
##비중비중
쉬어
펀더멘털이
##상황을
포스코대우
##quid
현상으로
등급민평3년
기관투자자
##취급
분명한
길게
##통계청
빨라질
##변경전
##영향을
##scal
걸릴
##bitr
aeranp337
살펴본
도로공사
2차례
3국고
9회사채
iy
헌
##외사
##6006f
##616
##d306
##xy
기억
12bp
##상각
##대에
유재
유보
0110
##부동
신설
신탁
일치
##0683
상승세는
상승세로
##차1
##04d3
##00650020004
증가했으며
원하는
도모
##확률
완벽
강세거래
그다지
fiscal
축소되고
금리인하는
##006f00730074
수익률의
##00740065006e
##007300200064
##0073006b007200690076
cost
##aaa회사aa
결정할
##전망상향
894
##00640073006b007200690076
처리는
##심리는
기조에
변경일자
3q15
영업환경
##켈
심리는
추천한다
##0063006b
##00200050004400460020bb38c11
의미를
내수경기
국면으로
##bc0f
지금의
경제성장률은
##30573
##006c006c006500720020007
분위기는
장기화될
매력도
##007200200075
##c5d0
공공요금
##0020006f00630068
에스케이이엔에스
##c815
##006500720020006b
##006500720020006400650073
##untagged
촉진
##0069006f006e0073
##00200075006e0064
앆정적
##c11c0020
051015200
이랜드월드
##20014001600180020002
##04c30673
##7684002000500044004600206587686
##007200750063006b
##0079007400e4
##0020006600f6
##0063006900f3006e
##21b5efa7684002000500044004600206587686
leaveuntagged
##068304c30673
##c5d0c11c0020
##068304c3067304d3
af
city
tre
##흡수
##ᆺ다운
##이머징
이것이
##시적
##아메리카
조세
00018
00035
00us
신고
044
전망으로
1980
##들리
##중립
반발
경제와
달러를
##급락
##힌
이어간
str
start
현대미포조선
##경제지표
9월에
##마이
a0a
높아지
한은총재의
반영되고
##강세를
##통안3개월
선물은
회사의
엔저
들어가
장기물이
양호하게
컨센서
대신에프앤아이
##여건이
##보유보유
형성되어
02040608
통안0390
상품가격
##악화
풍산
project
##컨츠
눈높
악재로
##가스공사
외국계
발행량이
##위안화
금고기금
동조화
arbitr
aj네트웍스
한국남동발전
##외국환
betting
##2545658
0국고
7조
##ᆷ버
##246
##큐
##den
##ior
##어지고
##년유로존
##한농
시도가
##제로
한산
##재에
조업
발동
##매력이
그림28
여력은
다행
##ᅦ이트
확대됨
감지
##플란
기업투자
매수와
##오버
회복국면
##하긴
거래되었다
##추세가
둔화되었다
##천구
유동성과
흐름에서
fomc는
##투기
평가가
과거에
말까지
스페인과
##은행채3개월
##평균평균
레벨은
입찰은
##커머셜
별로
##지역은
2q18
스왑시장
jpm
##보유고
##종합지수
확산될
근거가
##받고
##집트
##뉴스
줄어들고
나서고
매력적인
구체화
머물고
최소한
식품
세아베스틸
agency
희망
다르다
베이시스
유인이
##합계합계
농협금융지주
##드림
##코리아여수
##경우에도
테일러준칙
deri
송파구
arbitrage
more
ust
was
롱
##her
##자를
##한을
수반
금리메리트
보기는
##할만한
##208
##렦
일종의
##stab
소계
##inter
22015
본사
금융시스템
금융당국
모색
##ico
구직
##건전
성우하이텍
##eep
##rough
역성장
적격
보험기금
fomc가
전일종가
##ᅳ리랑
줄이
발생하고
spreadcredit
복사
취할
규제완화
측면도
가중치
##20092009
시간을
자체신용도
저하된
상환능력
##물량이
채권형펀드
케이비
직접적
크로아티아
30369
서울외국환
수치는
그래프
##결정은
자리잡
##69121518
##일시멘트
서울외국환중개
2만
3배
austral
fax
last
lending
pct
tu
##ᆼ크
##eong
##ph
##gr
##정가
##적일
##상업
1101
##금금
것인데
##만간
부터
##할인
##털
046
서초구
순서
대한제당
내지
높으며
##문로
##05년
##연은
##연간
등급변동
##형성
우려의
환차익
##협정
변화와
##1414
규모에
400억
독일10y
강화가
강화되며
전환한
##캔
절감
운영자금
##자금조달
##5y10y
복합
악화에
민평민평민평
십억유로
섹터의
정상화에
생각보다
업종의
즉각
면제
영역에
중기적으로
##이즈모바일
휴가
highlight
보합권에서
offic
##낮은
끝나지
워크아웃
##조작국
return
##의도동
##202224
030609012015
##보험투신종금
어쩌면
셧다운
##루브리컨츠
##ᅳ리랑카
pctl
민평민평민평민평
2번
3가지
4week
labor
would
궤
덜어
##ty
##cri
##gem
##이므로
시가
##수를
댈
전약
##졲
인내
채권지수
조만간
연임
고수
##본사
##능력이
##은행보험투신종금
금융aa
##bp가
##ork
기대한다
##감독
됨
5283
작업
인상기
##iss
단기금리가
총자본비율
##130
역외
##006f00720061
1년초과
##되었는데
##00740061006d
초강세
6월에
년거래
##029
##통안증권
##위원회의
강화되는
1q19
##0075007300740061
남미
언급했듯이
##ofers
##성장률성장률
이슈에
시점이다
롯데카드
발행시장에서
내수가
생각해
##비중주식
형성되고
##종합화학
##06570758
역전이
확보를
크레딧물에
직접적으로
##플레이터
차별화가
proofers
순상환을
국고3y국고5y
##002000410064006f00620065002000500044004600200070006100720061
20304
##통안1년통안2년
##00720020006b
##00200069006d00700072006500730073
##0020007300740061006d
0100200300400500600700
누구
발행금리가
##msci
##253537
consol
##국고5y국고
##006b00740075
예보기금특별계정채권
##ktop
##c976
##007400730075
##48c002000700072006f006f0066
주관회사
아웃룩
desktop
병행
##006b0074006f0070002
##006f007200720065006b00740075
##ructure
윌리엄스
##006f007300740075007300740061
##0020006600f600720020006b
4weeks
##0020007300740061006d00700061
##48c002000700072006f006f00660065007200
our
sel
톤
##iil
##yle
##있으며
##하되
##월호
##수금
##원공사
상황과
하게
금전신탁
##선이
##우선
##후강
여천ncc
노력이
##경상
##iting
외은
국내금리
##122
##등급상향
##orrow
완성
여전사
##피앤
##했었다
물가연동
정책대응
remain
##발행이
공히
##되는데
개선되면서
우려에도
주간동향
총수신
##1011
##만기별
856
년간
##덕
##추어
fomc에서는
경제지표는
순발행이
문제의
토지
무역갈등
##신용신용
민간부채
삼화
##특수채3년
##ersam
상태로
##글로벌글로벌
페소화
되돌리며
##이자율
가치가
prices
최소화
성향을
전개될
잠정주택판매
다르지
##ᆼ가능성
##허브코리아여수
##03804004
nsfr
business
샌프란시스코
일제히
5미국
bol
mba
##ni
주4
기정
##되므로
##인더
##수없
1209
가는
대하여
##주를
채권가격
채권젂망
조용구
##우소
##207
##20주
##신라
엿
##style
3년회사bbb
내정
내포
내린
##영업자
약해진
영위
##03개월
판단은
신용채
되기
되찾
성장세는
5555
5년국고채
장기채권
단기외채
총액
김준
일본채
높아지며
가격을
##파생
독일5y
독일2y
researchbond
유가와
##편차
평가기관
##ungs
##특수채1년
##효과로
##core
##영국스위스
##시키며
위원은
위험자산에
확산되고
물량을
하이일드채권
온라인
##은행계
pds26
구체적
동부건설
##이지리아
##특수aaa은행aaa
희박
##igger
##량과
gilt
yuniil
숫자는
기타금융업
다섯째주
유의미한
ilkwang
##이하여신
프랭크
만만치
유재호
yuniil1
4국고
rba
색
페이
##japan
##행과
##어려
기축
1204
##상가
전저점
보았다
엄
스프레드에
##겐
서철수
여지는
##외인
기준금리에
국내글로벌
불리
안정과
수익달
##발행사
##통안6개월
대웅
캔
sk인천석유화학
800억
대출이
기대감과
이전과
젂년
대응에
않았던
증가율을
왔던
논쟁
##것것
##프라임
산업생산은
위기를
##afta
읶하
국면을
해소로
맞아
노동생산성
통안증권은행채
악재가
##발표치
##매력도
increa
남아있다
h2m
비상업
연방기금금리
##푸드
liquid
##통안3개월통안6개월
##통안3개월통안6개월통안1년통안2년
908
ben
dm
k계약
pas
##명과
##ᆷ한농
##0회사bbb
##dings
##wk
##ves
##시웨이
##01년여전aa
##장단기
보복
##만의
채권자
연령
나서는
확고
국채10년
bpirs
bpjp
bpuk
bpkrw
bprok
3y통안
3y회사a
3y특수aaa
3년회사aa
3년은행채aaa
발행물의
2303
금융a
증가했고
차회사aa
##03년여전aa
판단으로
판단할
5y특수aaa
과중
오랜
순매수금액
5년간
5년회사bbb
자산매각
조원채권형
조원주식형
환산
1y국고5y국고
##5년여전aa
진전
역마진
1년회사aa
1년회사bbb
##234
분산
고용증가
2년회사aa
2년회사bbb
##02년여전aa
조정했다
##efn
crs3y
crs5y
제조업수주
남북
##3y국고
cds3y
cds1y
언급이
외인들이
##2년은행채3년
##2년특수채3년
시작될
##은행채5년여전aa
##은행채2년은행채3년
cd2y
단위kospi
##10y국고
3개월회사aa
3개월회사bbb
##특수채3개월
##특수채은행채여전채aa
##특수채2년특수채3년
##이었으며
거래량k
안전자산에
##보험공사
않는다는
capefn
최고4주간
최고ytd
부실화
##색이
##압력은
금리상승에
위험자산의
직전평가일
##하이일드
케이씨씨
이루어진
참여한
ma회사a
ma은행aaa
ma특수aaa
ma금융aa
##은행권
finance
##여전aa01년여전aa
장기금리의
percent
주의가
3y국고10y국고
유로지역에서는
선행지표
쇼크
단기자금비중주식
1y통안3y국고
무난한
회사bbb0회사bbb
##2402602
자본유출입
##특수채5년은행채3개월
임대업
##시가총액시가총액
아마도
이태훈
그림자금융
##은행채1년은행채2년은행채3년
##djia
246810jan
##05년회사aa
##03개월여전aa01년여전aa
##특수채1년특수채2년특수채3년
##통안3개월통안6개월통안1년통안2년특수채3개월
##03년여전aa05년회사aa
##02년여전aa03년여전aa05년회사aa
##은행채5년여전aa03개월여전aa01년여전aa
cd2y통안
단기자금비중주식자금
##특수채5년은행채3개월은행채1년은행채2년은행채3년
##특수채1년특수채2년특수채3년특수채5년은행채3개월은행채1년은행채2년은행채3년
##통안3개월통안6개월통안1년통안2년특수채3개월특수채1년특수채2년특수채3년특수채5년은행채3개월은행채1년은행채2년은행채3년
##은행채5년여전aa03개월여전aa01년여전aa02년여전aa03년여전aa05년회사aa
##통안3개월통안6개월통안1년통안2년특수채3개월특수채1년특수채2년특수채3년특수채5년은행채3개월은행채1년은행채2년은행채3년은행채5년여전aa03개월여전aa01년여전aa02년여전aa03년여전aa05년회사aa
nersam
sent
##4층
##cj
##flow
##어도
1106
##일을
##일형
1404
조작
기준을
그림29
고유동성
##출회
##경직
갱
bpmmf
##0443
예상되어
반작용
동맹
해태제과식품
높지만
금융위
##모기지
안착
순매수20주
자산군
유지를
또핚
일본과
##urity
##회사aaa회사aa
조정의
##하다가
유동성은
##ᆯ리베이
##very
##bbb0
##루나
##혜택
북구
어렵지만
동안의
펀더멘털과
농심
상태가
저하로
면에서
늘리는
환경을
중반까지
미국과의
비용을
막대한
반응은
우세한
##043d
회사aa금융aa
언론보도
##높아
krwdjia
바젤ⅲ
걸림돌
##잠재
재정건전성
##태국인도네시아
쌍용양회공업
평택에너지서비스
##란드러시아
댈러스
##특수aaa은행aaa회사aaa회사aa
회사aa금융aa회사aa
1위
jn
lim
ltd
mod
##벌
##0ks
##fed
##ai
##엘리베이
##자유
##스바
##롞
수지
수수수
##원리금
1512
1588
##부가
1302
보우소
발견
040801
##니스
강남
국채2y
하락에도
경기확장
동참
국내총
하나의
판결
##0313
##정책에
무산
축소폭이
35bp
세가지
역내
낮고
##0900
10월말
감소는
감소를
##ective
회복으로
##마이너
높았던
##전망을
조정으로
국가는
종목별로는
sk머티리얼즈
내년에는
##교역
못했던
줄이고
유효할
토빈
##1000
##정거래
##ember
900억원
양적완화를
위축이
형성할
1994
등락률
##업종의
통안0348
##주요주요
outlook평가일
사태가
변형할
공개된
##이후이후
의존도가
##측면에서
##량기업
주변국
caix
비우호적인
예상되므로
롤오버
빠져
궁극적으로
banco
##alatin
##움직임
##정밀화학
##동서발전
##32034
세전이익
paribas
##스바겐
5만
lf
yt
##ᅵᆨ
##435
##zil
##쓰
##ko
##정국면
##자스
##시즌
##01q
미결
##로운
1211
##0062
##제시
1711
##할1
00011
##우크라이나
##구리
투자판단
##시장이
여유가
3y은행채
시장조성
3년회사a
국내찿권
불러
그는
5년회사a
##물가상승률
장기적
##4555
##olin
1년회사a
매수는
##reau
감소세를
##조원을
환율에
##마켓
a0등급
2년회사a
4004
두려
##ibri
흐름과
속한
자본규제
신뢰지수
평가할
trigger
금리인하의
말이다
##폴란드러시아
시작할
spread지표
지수가
3개월회사a
급등했다
자동차금융
한기평의
어렵고
인식으로
과정에
두산엔진
아니라면
채무조정
도움을
gdp갭이
뉴욕유가
견인할
bureau
##012345678
##신용등급신용등급
##누적순매수
##ermany
0100200300400500600700800900
##하자면
세아제강
##연합자산관리
##좌파
당연히
조정장세
##금액금액금액
미루어
토지주택채권
전약후강
##마이너스
condensed
dax
mpc
p는
saar
##브라
##8y
##ique
##있다는
유플러스
0150
0500
##게임
매일
강제
상승했으며
순자산
##경남
국채3년
2368
금융통계
##icat
증가세는
리서치센터의
과반
오차가
##발행물
##약정
##comm
대비한
##138
호황
10월에
급속
급반등
조사자료에
조정할
동결했다
##었다는
매도세가
책임소재에
##국채5y
한화투자증권
부각으로
##2040608010012014016
포함해
코루나
편성
사업을
섹터에서
싞핚
지지할
계약을
피셔
동일하게
핵심은
행정부의
banks
예측결과
포스코에너지
유사시
올랐다
##razil
frb의
지나치게
##남아공체코
pacificweek
베이지
rates
##oblique
기다리는
##ᅳ랜드
비우호적
실어줄
아베노믹스
frutigerext
services
texpluse
georgia
크라운제과
옮겨
스케줄
##15y20y30y
##엘리베이터
수수수수
cand
sal
턴
##플로우
##hfa
##시작
수취
##나고
한동안
한일시멘트
보강
##아직
##미만
##프레시웨이
##edia
스프레드임
전망도
소버린
##억9
한국가스공사
10년만기
동사의
금융자산
##129
실체
지속하였다
##ᆼ국내
마찰
주요일정
영향력을
기업금융
일본제외
회복은
##전망치
##르는
##ᅳ라미
아니면
반등의
나타났으며
복잡
효과로
한화생명
증권투자의
구간을
##루피
##펀더
lg하우시스
lg이노텍
4q18
구조조정에
##수준으로
형성된
펀더멘탈에
자산배붂
##qua
소득세
경제전망을
스탠스는
선반영된
외화표시
떨어질
선제적인
진정될
낮추고
국내경제를
조짐을
european
선진유럽
contin
무난하게
한국남부발전
##중국중국중국
소강상태
동그라미
##페인트공업
수탁고
ed
nem
palatin
나름
아라
프
팩
##명기업
##흑자
##sdi
##condensed
##dana
##ᆺ케이
##iern
##nar
국부
국방
##동건설
대처
것일
하나로
14bp
##아니
우측이
0000
00090
그림30
선방
##차적으로
##04300
발행하는
##05ea
aaa5y
영등포구
마진
무리가
50014
##명이
발표로
##chet
##보다도
##하겠다
##economist
회복되고
3월에
부담에도
##otype
8888
수급상
커버리지
감안하여
##10y15y20y30y
##verse
##ewps
##oldstyle
않았고
##주택시장
섹터별로
낙폭을
추정한
##485
가중될
구조조정의
스왑스프레드
하회한
모멘텀은
##2949698100
금액금액금액금액
피력
상태를
사이에
banking
##받는
##엘지
기회를
end
##ᆼ감소
커지는
세계경제를
only
corbel
구체적으로
cybers
거래대금비중
문구가
유리할
##other
격차가
##antia
##antiqua
calibri
bookman
bookantiqua
aaa3y은행채
##가계부채
##gs칼텍스
의구심이
arialnar
10y초과특수채
bodonimtcondensed
verdana
##romanps
constantia
centurygothic
##buchet
timesnew
방송서비스
##4y5y
cambria
couriern
##멕시코브라질콜롬비아
커버드본드
trebuchet
consolas
삼화페인트공업
##olinotype
candara
palatinolinotype
cyberscs
bookmanoldstyle
arialnarrow
timesnewromanps
couriernewps
6006
nf
pd
##기본
##0180
##사차유동화전문1
##장의
##장학재단
20112011201
대거
전술
지도
거쳐
금리미
한파
인지
채권채권채권
##ᅵᆷ민
17bp
##우리는
신보
리비아
##책임
##신고
상승흐름을
발행회사
##실사
해외사
aaa은행채
##0306
만기를
더들리
기업들
배분
##개월만에
단지
##조원이
##렌
##1717
##10년만기
보여주는
부진했던
주택구
전환을
##법으로
설정을
건설사들의
선진국을
가계소비
재무건전성
##244
불안을
7y7y7y
롯데제과
##효과는
변동성에
추세로
시행될
달러화가
달러화의
메리츠금융지주
넘기
늘릴
##20162017
매파적으로
극동건설
컨센서스는
떨어지는
광주
이루어져
##ession
0100200300400500600700800
1000120014001600180020002
##7y8y
자기자본비율
##에이치마이
확신이
특수aaa☞
정기예금
하이트진로홀딩스
1y2y3y4y5y
##형김민
잒존
알루미늄
##6y7y8y
2011201120112011
7y7y7y7y
##에이치마이홈
1y2y3y4y5y6y7y8y
3대
6국고
kcc
so
yr
##725
##war
##화와
##요구
##정도의
##수도
##적이
##상을
##상거래
전쟁
##주만에
##원대
##조가
09월
##아태
##2001
##선택
리치
일관
##ars
한국중부발전
10년은
반등과
경기판단
은행aa
지속과
달러환율
##정책의
감면
신용도에
좌파
좌측이
축소세를
욕구
수요와
영향도
기업이익
발표에
##개월개월
투자자는
7월말
회복세는
##파이어
##강도
91d
보여진다
성장률에
##aces
1q14
커졌다
절차
못해
제공하는
이탈리아는
신규주문
지방은행
안전성을
급등으로
포지션의
캐피탈사의
의미하는
가량을
##헬스케어
하방위험이
위원들이
위험자산선호
통안0376
##패턴
청문회
대체투자
줄어들면서
투자수요를
##01001101201
설정한
거래대금에는
기저효과로
40506070809
move
##신규신규
01234509
매물출회
##자금흐름자금흐름
전분기대비
근로자
050100150200250300350400450500
##증가로
가이던스
##철도공사
##생활건강
##누적순발행누적순발행
투자판단에
베이지북
1irs
2단계
9년
av
##ᆸ다
##사례
##프러
##sw
##이스라엘
##릭
##년간
##사에
국한
금리정상화
미국경기
00년
##회차
##신의
상승했으나
선을
##경록
3yr
##ath
##ating
재현
##문일
지속됨에
##006507
##030
중국에
세월호
공존
목요일
포기
##달러화
1월에
##태도
회복되는
##련의
특수채를
결정하는
진행됐다
리스크의
##남시
약화시킬
예정인
교통
한화테크윈
장단기스프레드
실적을
##일본호주한국
2q17
여건에
과정이
자산매입을
중립적인
적용되는
##소득층
경제성장률이
공제외국인
관계를
직접투자
현상을
##터키폴란드러시아
사태로
##막판
없었던
##무역수지
확장국면
그래도
##짂국
##인플레인플레
이해관계
contents
70809
활발한
##02402502
swjung
자율협약
##europe
official
caixin
8국고
8002
er
nr
nafta
oo
range
sell
##읍
##2동
##899
##cur
##iam
이들의
##지신탁
##해서는
##유업
##로자
##정은
1110
##제리
한하여
##보기
05101520
##내수
##시장시장
##통합
##ands
##억유로
예상했다
##중요
2003년
기대의
##ens
있는가
##eet
통안계정
되살
중국중국중국중국
수익창출력
##코노미
현대종합
연준과
정부소비
##aged
수출업체
평균거래
##회사의
##더스
하반기를
##창원
투명
선물매도
##건설업
##유동자산
##너스
규제에
대응하는
입장이
단기물이
##것은
##768
은행간
시기와
분기말
##try
핚화
경기회복세
캐나다달러
경기부양에
극우
##2010년
등급전망을
가계대출은
관망세를
##통화정책회의
씩
나오고
국고0550
common
##말레이시아태국인도네시아
##변경후
미미한
이내로
선진아태
희석
##ference
기아차
##주별주별
##등급하향등급하향
##타이완
##부도율
##국고채금리특수채은행채여전채aa
##남아공체코멕시코브라질콜롬비아
##일본호주한국말레이시아태국인도네시아
##터키폴란드러시아남아공체코멕시코브라질콜롬비아
##일본호주한국말레이시아태국인도네시아인도중국
##터키폴란드러시아남아공체코멕시코브라질콜롬비아북미
3irs
condition
gu
꽤
란
슬
흘
##ᅳ는
##긍
##book
이민
이일형
##가량
##고려
##공기
##으로도
수밖에
1202
##나타
##전동
한매수
07국고
예를
##20b
0481216
국채10y
##0435
재검토
장마감
##05070901
확대할
않도록
의심
기대도
기대수익률
관전
##03c
3112
##2525
과정을
소비는
##chs
민자
특수채는
2년간
고객에
합성
##006f006d
확인되는
모습으로
부채가
1q05
자본차익
##03500
간에
##8001
##002e002000200
실질적으로
포지션은
당일발행물
금액이
집중된
하방위험
##iff
행정
##gdp갭
200204060
업체명
ifrs4
줄어들어
아래와
##boj
pds27
##머니
##outh
##경로를
##파워텍
선별적인
언제든
이끌었다
##08590951001051101
인천시
456789
야기할
##트릭
##2002400
##hares
자산유동화증권
눈높이
liquidity
##자스시티
해외사업
gr
괘
흐리
##fn
##ht
##nings
##ᆰ은
##리거나
미쳤다
##정의
##장은
##도화학
대에서
지니
거부
##일보
채택
##우위
고비
여력을
등록
하락폭은
은행대출
확대되어
##모비스
##목목
기대인플레
관점을
축소세가
수익이
##억원을
##2013년
유지하면서
stan
만족
진출
##효성
부담요인
안정이
##강세가
지표에
입법
##그러
법률
정확히
감안해
8001
그리스와
상위거래
지원에
선호현상이
top
##펀드로
한신평의
추세에
인플레는
##agement
스왑포인트
회의를
변수의
펀더멘털에
##헤지
수익성은
나서면서
반응을
투자수요는
##0100110120
갖는
fy17
##베트남터키폴란드러시아남아공체코멕시코브라질콜롬비아북미
나쁜
계절조정
시중금리는
##북미북미
있어서도
latam1w
plus
됐다
3035404550556065
플랫트닝
회생절차
전세가격은
뛰어넘
demand
abx
극대화
model
경제활동참가
##메이카
컨센서스를
국내총생산
##프러스
평균거래금리
##일본호주한국말레이시아태국인도네시아인도중국베트남터키폴란드러시아남아공체코멕시코브라질콜롬비아북미
7irs
8조
national
p의
##녕
##큰
이화
이견
이날
##다드
##하시는
주기
##수산물
##원도
##권에
##권의
##일반
하향검토
0120
##붙
한양
자사
##0077
상승하기
순으로
빅
##차별
국채입찰
한국이
한국스탠
3년swap
2323
##발채무
해제
##채권에
##채권자
##050100150200250300350400
##연내
##연속
기대하고
##포동
##확보
채권시장에는
과감
축소됨
변동이
이어감
우려하는
역젂
김민
##하겠으나
##ecut
2y이하
재정확대
보유잔액
반등하고
유가상승
브라질브라질브라질
우리금융지주
원화약세
유입되는
무보증사채
간과
방향이
##자본재
타당
##계약을
낙폭이
하는데
##것이나
전자상거래
자체의
저축률
##지점울산
뒤ᄄ
머니
부족으로
부문별
참여하지
이름
##쇼크
사례가
open
ls산전
##2014년
현실화될
씨티
house
확률이
아이디어
current
머물렀다
장기시장금리는
##ltro
##ᆫ스펀
510152025
##기아자동차
refinancing
조업일수
예보기금특별계정채권2012
갱신
특수aaa☞은행aaa
##ecutive
브라질브라질브라질브라질
##지점울산광역시
go
mak
nom
q4
##be
##컴
##sia
##dg
##we
##되겠지만
저평
자료와
##제사
01년
한다면
##산물가격
##간에
00013
##몇
전망에서
전망자료
서두
일으
확연
##였으며
상승했지만
시장동향
##적으로도
발행되는
장막판
모디
##0506
60p를
##탈퇴
##085
오퍼레이션
##메모
1월부터
분은
거래내역
##흥공
8월말
부진할
these
chase
부채는
대출증가율
발행ᄀ
불안과
발생하지
인플레이션갭
7y4주간
대외채무
##2043
##유동화전문
삼성엔지니어링
힘이
##철도시설
##펀드의
중장기적
긴축을
계속되는
해소되지
조달금리
##지점충
금일은
뚫
출발하였다
차입금의존도
코코본드의
##해외금리해외금리
0204060801001201
##순발행및
잔존만기국고04
목적의
##해왔던
두드러져
개발공사채
사모사채
##수자원공사
비관적
##10001100
##ᆯ러리아
경직성
로컬통화
맥락
##대륙대륙대륙
싞뢰할
##메리츠종금증권
value
대륙대륙대륙대륙
##불가리아
기축통화
대웅제약
8년
즐로
##주자
##ᆯ라
##굴
##트루
##있을
1201
하반
하순
##조절
정점으로
##소기업
##onlee
자치
##분에
##206
일환
비금유
가능하다고
낼
은행지주
##라니
##발유
##문에
경제학
판단에
통화의
bonds
월요일
##발행액
환매수
연준지수
초점을
##ige
펀드로
##02009
내년에
생보사
건설채
임직원
평가손익
회사찿
불확실성의
불안으로
##owonlee
순매도가
cpi가
eba
##부담으로
러시아의
지난주에는
넘지
##박스권
조달이
고용지표의
피치
전망치가
행동
절대적인
주장하는
잔존만기종목명
##미국채미국채
표시부분은
동부증권
문구를
##리스크가
이용하시는
승리
가시화될
##유지유지
##랜드리
지에스에너지
밀접
근원인플레이션율은
느린
##중심으로
50050100150200jan
##도입을
jb금융지주
에이제이
1000100200300400500jan
supply
복리채
완벽성은
토빈세
한매수전략은
흐리브
즐로티
2국내
dart
첨
▶미국
##just
##nd
##정감
##시행
##되게
밀리
##수지는
##상당
1135
##주1
상세
상관계
##제오
20ma
##동철
정례
##재조정
##안타
자영업자
05회사
투자유
19bp
1970
##입액
##은행해외
선도
최상위
##실험
실링
##0526
##폼
경우에
5y이하
##117
요읶
세인
공업
수요측
1yr
단기채
##1401
##초동
##urther
건강
부담도
##렉
보험료
##르지
흐름으로
하향안정
crsfx
개별민평대비
수급은
강화를
전환은
##법안
##ells
1q13
약화와
##유로유로
##비율이
##통과
유동성의
##경기모멘텀
예정일
변경일
한화토탈
반면에
구간이
##279
멕시코의
상반기에는
국고3년물
italy
국제수지
수입품
##영국채
fred
윤여삼
생길
상승률을
최종거래
##핚국
extr
계속되고
있기는
noticecompliance
체제
회의에서는
하방경직
보합세
직전직전직전
펀더멘ᄐ
##국가해외
환경은
##해외크레딧금리
초과이익
영역은
플랜트
출발했으나
그렇지만
뉴욕증시
12년12월
##공개
cj제일제당
##재료로
##핵심
알려진
배당수익률
20246jan
imeritz
indicat
수혜를
##002c0020006b
국제금융시장
hawk
증거로
빠르면
사항이
추정치로서
예상되지만
##연방금리
코오롱인더
라틴아메리카
effect
세법개정
캔자스시티
##랜드리테일
흐리브냐
직전직전직전직전
1x
9조
9irs
b3
ks
sowonlee
다지
딜
##tae
##1가
##day
##ah
##oecd
##libor
이집트
미반영
##로구
##세의
대안
지식
##제구
금리결정
##투자에
01cp
붂
기준이
투자로
제어
##단체
빌
##갤러리아
발행비중
재평가
##ret
마저
##정책이
만기규모
5000억
5323
##119
회담
recent
인하한
자산규모
##플링
##예치
개선되지
##135
##경제성장률
1년간
감소해
책임준비금
##텔리
##르과이
##천파워
큰폭
종목군
강화시킬
부채위기
1q08
약화되면서
##rid
유입되었다
중앙동
##증가에
##씨엔에스
5665
실질성장률
실질실효
대부분을
marg
급락으로
##변화에
juntae
##294
해소에
imf의
##곡동
금리상승을
가계부채의
당시와
##삼동
재고순환
고정이하여신
관세청
중소형
서울환시
떨어ᄄ
수치가
##017019
sachs
2024jan
확실시
확실한
닛케이
장기투자기관들의
2000200400600
##로지스틱스
##a9b7
받아들여
자본이득
fixedincome이정준02
234567jan
100120140160180200aug
##24026028
moderate
공제외국인기타법인
흘러
3번
dti
farg
wise
망
샤
퍼
##으려
##ᆷ코
##혹
##jul
##꺼
##ford
##ᅳ랙
##스포
##정수
##성동
대까지
##금리상승
정점을
연이어
##분류
리브
##20ma
스프레드영국
나이라
일련의
##계산
소규모
##찮
국채국채국채
예상한
외평
3년국고채
하락했던
하락했지만
경기사이클
##126
##채권을
달러가치
안에
cross
판단하는
52주
과라니
##물가물가
주간으로
##455
##크게
현대모비스
7월에
##ᆼ기준
매수상위
##16016
4711
안정되는
부진의
미래에셋대우p
줄일
##자금은
활발해
받게
않았음
금주에도
공사채는
경계심
##활용
인플레를
호조가
발행시장이
최대주주
심화되는
상태에
곡물
1234567
관리를
##금융채금융채
##삼호
채권투자에
항상
관점에서는
금리차는
forward
##있는있는
공개시장
혼재
020406080100120
이뤄질
개정안
호텔신라
##종류별
신규주택매매
중동지역
왜곡
westerneurope
쿠나
구매관리
배럴당
극단적인
##unicip
##미매각률
##등재등재
##비농업부문
##몬드
advanced
##gram
##경상수지
김준태
펀더멘틀
국채국채국채국채
1통안
7개월
tae
슬로바키아
##ᆫ트로
##1b
##fb
##vent
이코노미
##지게
##자인
##시시
1015
##012018
국경
##동과
##대체
상하향
한층
1303
##치고
인가
1408
1402
부결
##2005
발휘
신영
신정부의
전망한
##회전
일중
##0600
순이자
대한민국
소외
국채수익률은
한국서부발전
위기에
##중이다
경기도시공사
동사는
동남아시아
##라드
물러
##벤
##베팅
201605
유로로
35791113
##4648505
##ole
##2333
자금지원
초대형
##키로
있었기
멤버
정보의
목표에
##184
자본시장
반등한
고려하여
##었다고
가계신용
##가격과
상당폭
영업적자
충당
its
러시아는
##covery
양적완화에
fron
##시키지
키스
대부분이
조사분석자료
시사했다
은행계
앞으로의
피할
##상황에
##상황은
##엘에스
이익실현
##통안채통안채
##db8
상존해
도래하는
##kosdaqkosdaq
오르는
유효수요가
##프로젝트
힘들다
비관론
납입
상반된
멈추
kr356
봉차트
징후
##161718
10001200140016001800200022002400
stanley
이화진
##트루이스
b0
fhfa
like
oth
york
르
차질
##ᆸ지
##barclays
##por
##ous
##ᆻ듯이
##gu
이달
##어라
##화화
##고령화
미사일
##정에
##정위
##대차
##성의
전북
융
##부킹
02us
##재인
부인
00kosdaq
전망되고
제조
나싞평
##진흥공
50kosdaq
##단가
국채가
반해
##타드
##체제
##심화
기대해
강세기조
좌축
500원
수준과
성장은
정책당국의
80p를
유지되도록
stand
##하였던
감소했고
민영화
결정스프레드
반영되면서
8851
지표와
독일10
국가가
동결에
부진에도
종목과
crs금리
전환했다
반등으로
근무
내년부터
줄이기
##ivity
말레이
##에게는
언급처럼
##mex
시점으로
이자를
심리지표
##읶도
내수의
플라
adjust
##kim0526
실물지표
주도의
해결을
3012
출구전략을
40481216
그것을
ls전선
우세할
fy16
ltm
기저효과가
##육차유동화전문
오버부킹
일별추이
정기평
nh농협
장기투자기관의
정금12
성명서에서
aj렌터카
##자기자본비율
##화폐화폐
##등락률등락률
##뮤니
##아라비아
한산한
jnkim0526
sales
##unicipal
3만
5통안
nan
tick
빼
죽
##679
##5일
##시카리
주금
기상
##정리
정ᄀ
##상장
갚
##나가
유욱
보듯이
##동력
정점
채권거래
000계약
추후
회사채간
1808
##회피
##트너
매달
소통
외교
시장지위
금융정책
##icp
달러와
구도
만기만기만기
무제한
통화스왑
중국인
축소됐다
유로의
유로통계청
##명령
인하될
##옐런
완화기조
이상은
있었으나
##양적
고용시장의
안정성을
##배로
##ibility
캡
영국5
##완전
이번에도
sk루브리컨츠
trade
순발행은
대출채권
베일
말하는
중앙정부
이전까지
선호현상
악화가
사실은
심리에
가중시킬
##수준에서
싞종
루마니아
핵실험
등락이
상단에서
##ift
ism비
불가피한
용산
돌아선
부채비율이
##c5a9b7
##043e
몇몇
신한금융투자에스모아제
사이클이
인프라투자
0246810
health
통안2년은
돈이
부재한
단기자금시장
##석연휴
상관관계가
##영업이익률
##수자료
총리의
bnk금융지주
##상승과
billion
##bdv1
타격을
지켜봐야
management
초래할
##낙관
빚을
공급과잉
##5y10y20y
물가연동채
##다드차
최종거래일
유욱재
만기만기만기만기
home
lock
pri
public
셰
쪼
##ᅲ직
##ᆼ이
##92
##air
##하회
시급
##사실
##대를
가동
##세프
지위
보입니다
채권전망
조동철
##보증ᄀ
고요
고위험
투자대상
50달러
강도를
##억8
한국동서발전
발행할
경기불확실성
은행예금
##액을
증가폭이
##모습
않더라도
차감
기대지수
##포트
감속
되며
중국경제의
수준보다
이어짐
##메탈
##멕스
대비해
금통위에서도
##132
##1014
낮지만
2012f2012f2012
환율을
##추얼
4월에
개별국가
##르기
위험과
작성에
영국2
아니기
sk네트웍스
기관들이
평가는
대우증권에이스오토인베스트
순매도했다
견지
기존주택
이슈와
한화에너지
신규대출
##273
젂월
연말에
외환규제
frn
4q16
추정되는
천억원
급락했다
변수는
외부인
국고5년은
핚기평
경제성장률을
좋을
사이의
커브가
주장한
##이긴
##발행규모
##skc
성과는
받았다
광의
##012345
제고를
높아졌으며
##52w
중간선거
계열회사의
ltv
제도도입을
보고서부터
불과하다
전제로
늦추
##venue
인천도시공사
##f2012f
##12001300
##고객의
주택착공건수
cd91일통안채2년
1990년대
##퓰리
공적자금
목소리가
##valuationvaluation
고용개선
과중한
리치몬드
임직원등
세인트루이스
fargo
구매관리자
키스넷
2012f2012f2012f2012f
esp
gap
oas
q3
q2
##줘
##023
##282
##→→
##ᆼ견
##짓
시일
국도화학
전방
지불
한독
보상
##동원
##동맹
웃
붙
##간접
##선행
추석연휴
##들이다
여름
상승에도
10년간
외자
하락했으나
사드
다각
##127
##icore
확대폭이
점유율
##감안
##국고국고
##ilities
오늘
인하여
수요의
유지한
포천파워
단기국채
올리
올리는
올레케이티제
##현동
변화로
##136
##미국tn
##오션
수출액
30014
##0100120140160180200
유럽경제는
가격메리트가
##르고
두는
대우인터내셔널
작성일
영국은
경제지표들이
다시금
통안채의
작용하는
평가하고
자신감
기조적인
유효하다
유효하다는
##1919
##정권
pmi는
롯데지주
롯데푸드
지원이
디지
국고3년은
악화와
입찰을
사업안정성
무단으로
##016017
투자심리에
대상에
##tract
예금보험공사
통안0383
초반까지
deutsche
유통시장에서는
뉴욕환시
program
months
##정보시스템
유의할
##냐는
소수의견을
약보합세를
열어둘
완화정책을
##우리캐피탈
h2g
12121212
난민
연준의장의
##낮아
010203040506070
앆정
국고02750
##한진해운
가팔라
뱅크로
왔니
채권채권채권채권
##0065070075
##0120180240
##다드차타드
##퓰리즘
1인
1중국
7기준금리
hp
ru
sj
##par
##national
이랜드리테일
##지연
##장치
1103
##광ᄀ
##비교
##조합
16bp
채권과
채권수익률
미국에
##선식품
05국고10년
낳
##150200250300
강해
강력
##ari
없으나
##sep
높이기
모른
불리한
증가의
##공백
원전
점선은
주요한
특이
작아
변동성과
공포
1y1y1y
##roup
단기금리는
여전채가
역설
##오면서
##1616
초우량
6월부터
##하기에
##조원에
해외금리
유럽발
규모도
##평가사
기록했던
##1818
제한하고
경제지표에
강화할
##분석실
##법에
감안하더라도
나타나기
회사aaa
##대출금리
상회했다
삼성화재
삼성sdi
4q17
##프라이
##수준에
위축될
돌입
지지하고
페멕스
조달을
재료의
포트폴리오를
면치
charts
gs파워
일단은
브렉시트가
been
정상회의
020040060080010001
051015202530354045
괴리가
05101520253
발행규모는
끌어내
##맹점
##만기금액발행금액정책은행
tech
##독일프랑스이탈리아스페인
한국토지신탁
##잔존만기
견실한
##생각대로티제십
엠파이어
금융통계정보시스템
되살아
자사주
##0170190210
##0120180240jan
1y1y1y1y
6기준금리
9카드채
dan
esi
further
lc
leg
pm
pigs
yd
브레이
##부자
##ᅢ혁
##216
##neg
##이티
##자동
##시한
10us
주어
1511
금리메리트가
유안타
인위
##물에
스캔
부짂
000외국인
화섬
0300
스프레드일본
전망하는
전망하며
소속
6923
하락폭을
달한다
반납
발행도
23456
1002
지속적
하나는
##지수의
감내
##발행일
5년과
등급에
포항
포퓰리즘
기업구조조정
##스트증권
이베스트증권
7월부터
낮춘
##235
급등과
완화시킬
##맞
거래는
유럽계
##180
##02468
##30a
##투입
소비자물가상승률
##oct
엔달러
유효해
순매도에
대외부채
##총선
전반적
light
안전한
디커
##광물자원공사
천호
##활성화
다음으로
하이읷드
비해서는
읶도
mill
업종업종업종
발행금액캐피탈채
핚싞평
지금과
##ection
hyg
funding
상품시장
a등급이
운용하기로
91일물
충격에
##참여
##베이션
양상이다
##3m6m
##kospikospi
bear
final
재무구조가
신용위험이
kr600
바뀐
나타난다
드러나
봤을
더디게
헤지펀드
대성산업
bnk캐피탈
##하반기하반기
여파가
1y2y3y5y
사상최대
한국증권금융
감사보고서
프라이
##리케인
불편한
기업경기실사
잒존기간
wisefn
##삼호중공업
frontier
업종업종업종업종
6개
7개
back
fac
mf
mal
tom
깜
룩셈부르크
##슬로바키아
##304
##606
##a급
##릿
##리에
##어ᄄ
##고정
##대가
가고
가세
대북
전선
##006a
##제삼차유동화전문
01수요예측금액
aa이상
##조를
02cp
스프
##ons
연출
미국금리
##내구재
예단
섣
서방
##155
중점
일회
##062706
##structure
시장점
시장참가
동력
원천
안예
60ma
여전a
주요뉴스
##복합
목록
인하기대
##3년초과
유지하기로
stock
현대커머셜
##143
은행채가
호세프
일본은행의
양도
완화시켜
초단기
##00610072
올해보다
유럽경제
##테스트
##00690064
used
aa0aa0aa0
##1701
신흥국에
이탈이
##555
##00200077
유입되고
##758
##eps
많았다
실업률과
낮아지면서
최종변경일
와의
허리케인
4q15
힘들어
산업생산과
인식에
국채선물가격이
해소될
imf는
기준으로는
고용지표는
경쟁력을
발행금액정책은행
확산되는
##20162016
na616
##글로벌로지스
한진중공업
재정정책이
재정정책의
조치로
적자를
방식을
cj대한통운
애틀
이끄는
5157
성향의
americ
육상운송
이외에도
몰려
##lg유플러스
학습
근로시간
##2y3y5y10y20y
##만기금액발행금액캐피탈채
flattening
20020406080
자생력
평탄화
가산금리
오성운동
##치전기치전기
a0a0a
턴어라
안예하
aa0aa0aa0aa0
0기타법인
2위
big
cit
ju
ut
컴
트
##kk
##q2
이나
##성가능
##지면
기피
##omt
##oma
##일로
##조로
##금리인하
##동부
##위한
00리보
신경
회사채baa
고령
고점으로
##니즘
노무
비주
비추어
한국도
한국한국한국
한국장학재단
3y3
10년이하
3년여전채aa
##실물
##평양
##탑
증가했으나
판단함
신용분석
추이fig
##254
과연
순매수에
세입
##순증
기업부채
통화정책통화정책통화정책
총량
현대카드
현대해상
##chang
투자자가
1년전
매수의
증권사의
올해의
민주
수출에
부담스러
유럽은
유럽연합
결정시
##전망│
##르게
##vey
##ulti
잔류
수급호조
구조를
평가절하
##자금의
엔에이치
유효하다고
3년물이
spreadus
교란
방향에
있을지
영업현금
명백
추정되었다
5년물과
참고용
의미있는
대부분은
ext
하회하며
제한적이다
소매판매액
sheet
집중되는
##850900
##umer
##4043
##inty
예금은행
통안0381
당시의
관리에
미매각을
펀더멘탈이
편입비중
이익을
2002040608010012014
그렇다
유통시장에서
##이자수익
해석될
후반으로
국제유가가
크레딧시장의
main
호재가
조건부
신중할
수주산업
지주회사
##45678910
지나친
강보합세를
인구고령화
억제를
##0a0
근본적으로
효성캐피탈
##14001500
예정기업
##tainty
##strategist
롤링
유일하게
귀결
서브프라임
상하이종합
산유국
##130135
##큐온
##03804004204
동그라미는
##240260280300
디커플링
a0a0a0a0
한국한국한국한국
통화정책통화정책통화정책통화정책
2금융권
e1
##ᅲᆯ
##채민
##지어
미분양
##로도
##장에서
##성도
대상이
##주로
금리상승기
##업무
채권보유
##안전
자세
07월
회사채3년
##구차유동화
##edic
전망했다
제핚
상승요인
시장도
발행으로
발행될
발행예정
내릴
장담
모양
국내주식
##반응
영향과
때마다
관렦
있는지
감당
강세흐름을
##역사
##118
회색
##명으로
수요증가
소비세
##등으로
더해져
장기시
유지하여
##평가를
올림픽
최근에
발표하는
매수세는
필요성은
분담
##하기가
##ood
##uring
목표치를
고용의
금리인상으로
##상승상승
##1719
유동부채
독일10년
위험선호
그린
내용에
임채민
참의원
평가했다
벤
파키스탄
제공되는
기간을
카시카리
얻어
선호심리가
부동산가격
않았습니다
급등이
디플레이터
윤정수
인플레에
키워
중장기적인
1996
최대한
상단이
심화로
펀더멘털을
발행금액aa급
위원들은
중립으로
늘면서
##앤씨
업체의
담당자는
##bondbond
마무리될
금리차가
차별화된
반응이
##cd91일
어느정도
경기둔화에
주택가격은
광범위
휴비스
##수요예측수요예측
발행물량은
hjlee
##020406080100
저평가폭
동원산업
cape투자증권
latinameric
부작용을
##만기금액발행금액aa급
예치금
제로금리
transfer
##bil로
오일허브코리아여수
옥수수
##certainty
##1000150020002500
##전망하향전망하향
란드
##광객
1일본
7카드채
70758
kor
rbs
균
##렬
##ᆫ오션
##te
##12007
##csi
##dn
##rl
##ㅣ크레딧
##ㅣeconomist
10기준금리
##기능
##0155
시추
젃
가상의
대대
##주기
유토
0112
##물류
20만명
##onal
기준국내
03년
##률이
##닉
섭
중시
여지를
개요
한국철도공사
##중장기
기준금리인상
발행스프레드
동야
##환산
지속된다면
증가하였다
##모직
영햐
차주
도발
##감사
##자료를
##111
인상한
등급하락
우려감이
주간사로
70bp
현대파워텍
##효율
조정한
##강남
##기준으로
제조업체
##법원
자본수지
##교환
설문
##828
예정이율
단위로
##빌딩2층
이미선ㅣ크레딧
규제로
##20406080100120
##부담을
입찰에
김상만ㅣeconomist
단기물에
사업의
##기금채
##읶상
executive
하회하면서
##비중은
##가능성은
##가능성에
##00200300400
kb증권
종류종류
핵심소비자물가
제시하고
##국가별
포트폴리오는
경기회복을
일정수준
##최고
##앤알
편입일
영역으로
구성되어
아닌가
증액발행
수익률곡선은
평잔
콜금리
기본자본비율
조건을
차익실현에
경로에
##b9a
민감도가
관망세
aa등급이
소식으로
##jpy
##02040608010012014016
발행금리는
020406080100120140160180200
무디스는
regular
민간부문의
##않아
50510152025303540455
액션
신규실업수당청구건수
1999년
부담스럽다
##바랍니다
##1000110012001300
이코노미스트
tomorrow
1한국
2irs
5만명
7aug
8개월
eun
hicp
la
qqe
메이
빠지
찍
##ton
##sub
##jh
##pf
##lig
##wed
##ness
##저가
##엔터
##가면서
##스크
시총
수춗
봄
보더라도
우발채무
붉은
05금리
05국고20년
##니까
##책을
선전
비수
한국철도시설
##중단
시장으로
사임
발행증가
불필요
지속되어
##반스
판단되는
추이와
밟
추가하락
금통위와
김태
##reak
올해에도
##uth
요인과
제한적으로
1q09
자본을
커뮤니
구조조정과
금융시장에서
##브이
불안은
인플레이션과
4분기중
신규수주
탓
구간에서는
지원하는
지원가능성이
##employment
마이너스를
fra
별로는
소매판매는
시사한다
금액을
지연되고
업종에
종류별로는
위원회
##주간주간
텐트럼
늘리고
##순매수순매수
대체적으로
범위를
##크로아티아
구성하고
넷째
국고10년은
용이
국제유가의
없었음
ba3
매력도가
것인지에
부채비율은
수정경제전망에서
탄탄
##ended
이루어지고
잔고는
동부제철
##20142014
##부진한
kr603
나오는
overse
누가
공화당이
##수수료
506070809
국내경기의
##좌의
자연스럽게
##평가일평가일
##ᅳ랜치
일각에서
aaa등급이
떠나
##youngrok
대손충당금
숏커
05010015020025030035007
##주택시장지수
##02402502602
nanum
셰일
##엔터프라이즈
5기준금리
dist
dire
garam
hc
hid
kyoungrok
wing
그로
따
##ᆨ센
##또
##이은
##있음
##정금액
##한미
가치를
##세안
대춗
전형
2030
채우
##재원
연료
추종
18bp
##209
##2024
일이
##은행외국인
##속도는
소지가
반증
발행목적
##atang
본토
##ree
다다
다분
지속했다
##당진
##연한
##03a
무위험
통안3m
추가완화
인상기조
5년국고5년
수요측면
자산부채
자산축소
자산분석실
##unce
우려했던
기업별
##현종
만회
만드는
발표할
발표일정
##142
##igas
##추정
있었고
##양호
각사
##강세로
2021년
영국이
유로존은
##ebit
##eft
확인하는
상대가치
전환할
폭스바겐
champ
##istomt
문재인
선물은행외국인
반등세
선진국들의
원화가치
자신감을
euc
##수요는
기간은
기간스프레드
변경은
##정구
##0072006d
롯데글로벌로지스
선호심리
10305070901
##커니즘
섹터별로는
sanm
sanst
sanmc
san02
sandf
sanks
sansf
생각하는
증시의
긴축에
##vid
1998
체계
지연으로
boldmt
성공적으로
박스권을
자산운용사의
합의를
hynam
초과지준
노동력
##00760065
##엘에이치마이홈
이익창출
조기환매
찾는
##cpc
당장의
낙관론
콜옵션
##002000760061
받아들이
italicmt
fy15
오르고
스티프너
bolditalicmt
이어졌으나
나오면서
바뀔
calistomt
요소로
0510152025303540455
##lg전자
시중금리의
##노르웨이스웨덴
국고20년은
세제개혁
성격이
신규주택착
loans
가격부담으로
survey
##00e90073
##c403
##취업자수
##0020006e0079
재정건전화
서브원
##mirmirmir
변곡점
printing
industrial
mirmirmirmir
풀이된다
외은지점
##455565
trebuchetms
kscpc
주금공
ydigas
턴어라운드
overseas
garamond
hidden
wingdings
champion
ydigasii
1개
1기준금리
7국고채
dat
lcd
lhs
ndf
큼
##나루
##흐
##men
##la
##vate
##↓↓
##다이스
10회사
##기초
##고점을
시키
##상반기
##대림
가면서
##주었다
0121
미국발
섬
일이다
2501
경기하
해양
금융불균형
하나캐피탈
확대하는
않으나
구입
기대했던
과제
성장성
revenue
세율
기업분석
환율상승
11월에
##파크
후에
2022년
그린스펀
확인되지
어떠한경우에도
전환에
krra
##0027
임계
유동성에
소비자물가가
##불이행
대출의
대출금
출신
발생으로
현황현황현황
4분기에는
효과적
이전의
김상맂
##씨소프트
시점에서는
메리트를
영업익
부분에
지난주에
frank
볼커
##상환기금채
##여전히
##관리계획
계열의
잠재적인
상태다
##110112
성공한
확산되면서
그림31
데에는
통안0338
차지하여
원화채권에
영역에서
##둘러
pageiii
##20182018
시나리오를
국제유가는
##01802
##ization
구제금융을
budg
##사업의
경로가
해운업
고점은
##주체별
at1
에스케이하이닉스
대책이
비둘기파적인
##오토피아
none
오름세
금리변동폭
자금유출이
인민은행의
##010203040506070809
##30yr
상하방
여론조사
##국내금리국내금리
인터뷰
밑돌
##이노베이션
한국증권전산
합리적
product
국책은행
strong
자리잡고
매일유업
국부펀드
광의통화
장기시계열
현황현황현황현황
1국채
bs
ict
soc
tow
쓸
혁
##415
##m이하
##gv
##ger
이경록
##해온
##화성
##고지와
시리
기점
기죾
##인은
##인정
##정동
수치를
가구
대부
15015
보내
보지만
정해
조류
17미국
##선에서
##1043
##책이
##능력을
선에서
대한대한대한
비경쟁
최귺
반사
경기순환
은행세
은행별
금융상품
##ergence
실시된
국고채10y
점증
때에는
감수
무려
변동폭이
80조엔
개선개선개선
우려되는
##달러를
##452
##rop
표7
소비자동향
메디
결정되는
재정2013
두어야
국가에
흐름의
종목들은
##acy
자본총계
##정부는
재무상태
금리인하와
3년물의
말부터
##폴리스
지수의
지수와
상반기중
영업일
규제와
##주택금융공사
포함된
사실을
lg생활건강
2q15
선택할
베팅전략은
##케이션
비해서
##스테이트
계속된
사전고지와
존재하지
1분기에
발행금액을
전기전자
계획이
우선순위
확산되며
제시한다
확보에
의사록을
손실흡수
절대적
경계감은
##주요금리
영역이
구성종목
보험사가
##인상인상
명목성장률
재정정책에
재정정책을
##prolog
나신평의
애큐온
issu
파운드화
중간재
읷반
클리
imp
주택담보대출을
11111111
##20192019
잔존만기통안dc
##전월대비
##기계수주
갈등이
견해를
사라지지
##캐리이익
소프트웨어
##플랜트
##102104106108
##전망상향전망상향
##eepening
##20222426
완성차
sentix
고유동성자산
continu
깜짝
##changed
대한대한대한대한
개선개선개선개선
2천
2번의
3회사채
break
left
opt
si
룰
##아를
##바지
##ores
##ounce
##mar
##key
##yeong
##valu
##이사
##지로
##스틱
##유화
##동구
##수정
##적을
##주목
##전분기
##일배당
유망
01월
01국고
한전채
한전채3년
보스턴
02수요예측금액
채권종류별
##소화
연일
연쇄
통방
1830
예전
중중중
선짂국
비은행
##억7
국채보유
한국수자원공사
3y스프레드
외면
시장과의
모회사
지속이
확대의
이후는
물류
기대하는
맡
마켓
만기는
##mco
5y회사채aaa
채권시장도
순매수하며
인상에도
##등의
##플랜
##협상이
발표되면서
현대엘리베이터
##140
##경제활동
7711
정부에
there
##reads
##ece
##많
산업에
산업은
개별개별개별
##팜한농
조정된
보이는데
2027
수요예측액
확인되었다
전일민평
spain
##istics
고려한다면
##3004005
베스트투자증권
불안요인으로
변경이
발생시
시작했고
금융기
한화갤러리아
롯데로지스틱스
ishares
##014015
실적에
##부문이
입장은
국제원자재
공사채의
마이너스로
120ma
leejh
누적순발행은
윤현종
다음달
여건의
위축을
급락과
시사하고
##압력으로
플러
캐리ᄐ
제시했다
잔액은
근원소비자물가
##집단
캐피탈채의
불가피하다
사태에
지급보증
설비투자가
prim
##미국채10년
수주잔고
크레딧채권시장
달성하기
10010203040500
##hyung
방법으로
##불확실성이
announce
구축효과
여젂히
##두산건설
##두산중공업
발행규모가
##pper
forex
당연직
05010015020025030035040007
0102030405060701
##신흥신흥
##따른따른
금리변화에
##동이제십일차유동화
##하려면
극단적
northam
열위한
숚발행
##되었음에도
근원인플레이션율도
타이트한
##숚위
파라다이스
##stabstab
##수없습니다
1인당
김태형
개별개별개별개별
announcement
6층
dri
po
sn
sign
south
뮤
##309
##2가
이때
##지의
시멘트
시즌
기우
##적격
가맹점
##성으로
전전전
지에
보전
보간
0200
02통안2년
02통안1년
20조원
연이은
##표면
기준선
03us
04년
##10203040506
##10305070901y
서흥
변하지
강구
빌려
소위
3y초과
당위
윈
2401
국내기관
불황
##050
크레딧에
의회의
차관
##목적으로
때보다
에도
에서는
관광객
감액
만기별로는
강세에도
등급은
##코드
##반기업
90p를
##오쇼핑
9월까지
than
분당
##웰
민갂
주식의
메스터
유럽지역
가격부담이
결정한
반영됨
제한되며
유동비율
국가별로
보였음
their
확인됨에
spc
부채감축
##수익을
건설수주
못하면서
작용했던
##2424
불안심리
언급은
언급을
간주
움직이는
##1009
##100101
연속으로
10년물의
카플란
나타낸다
영업수익성
그룹명그룹명그룹
한기평한기평한기평
속도의
점검하면서
한신평한신평한신평
별개로
일반인
대규모로
유출이
위원의
박스권에
의사록에서는
합의에
요구하는
채무재조정
경계감에
부문에서
항공기
강조한
투자의사
평정
##40455055
##sk에너지
취업자수는
later
crb지수
pds25
끝난
분명히
international
##itional
이르다
수단을
늦춰
never
부작용이
##인식이
사우디아라비아
경제정책에
minhyung
##figure
william
cannot
원달러환율
★★★★
##향후향후
거론되고
##명그룹명
엘에스전선
숨고
울산
states
이라크
weeklybondmarket
##110112114
budget
그룹명그룹명그룹명그룹명
한기평한기평한기평한기평
한신평한신평한신평한신평
1b
1st
2credit
8만
abo
b2
flo
fut
multi
nicenicen
ough
pace
rhs
꾀
몬
브리
콘
▲▲
◀▶
##ument
##10064006f00620065
##pb
##fri
##may
##lant
##wal
##지브이
##년물
##년까지
##기록
기말
미달러
수립
가용
짓
##원가
##일수록
유치
하면
한전
한도를
채권메모
조엔
##미시건대
000gem
00국고20년
05월
고른
투자환경
투자기회
##트코
강해질
##으니
위의
##inary
내각
동시
국내에서는
##053
##ᆼ국가
의결
기대보다
기대심리를
##확산
통화지수
회전
축소되어
외국인과
공유
수요도
##플라이
개선되기
종사
단기에
단기채권
현대삼호중공업
진작
##0020006800
정부지원
##igroup
주식을
수출도
거래를
##0069006d
##품목
8월에
##2030
국가부채
##ible
##통안2y
유로존과
국채선물은
신흥국들의
전환으로
선물시장에서
자본으로
##00750074
##유로지역
손보사
레드레드레
나타나며
대출은
eu탈퇴
##수요를
##336
발생하면서
인플레이션의
##mem
호주는
금융기업
타협
3q14
##00700065
##주택가격
지역에서
united
lg상사
어렵기
급락한
##securities
읶니
신한카드
시기상
피로
0010
저금리에
그림32
의사록이
이벤트에
접근할
##00410064006f00620065
케이스
비농업신규
불가피해
마무리된
추경을
증액된
옐런의
연기금의
올라서
50050100
기여할
##신용등급을
404812
미연준은
지나면서
##롯데건설
나오지
쪽에
cny
형태의
맞물리며
##지속지속
##적용등급
##00200070006f0075
목표치인
##0190200
median
feff004b
엇갈리는
엇갈린
##icenice
##드레드
##1091101
010203040506070801
##bnp
##007200740069
##파이낸셜서비스
옐런의장의
##분위기가
믿음
01020304050
##퓨터
가격메리트가격메리트가격메리트
변함이
##국제유가
##스프스프스프
##업체명업체명업체명
##아웃룩아웃룩아웃룩
##0020006b00760061006c0069007400650074
휘발유
아웃룩아웃룩아웃룩아웃룩
기정사실
보우소나루
04080120160200
주택구입
swjung7
업체명업체명업체명업체명
실질실효환율
떨어뜨리
고용감소
스프스프스프스프
##0072006d0061
nicenicenicenice
◀▶credit
레드레드레드레드
가격메리트가격메리트가격메리트가격메리트
1번
2명
9정책금리
bot
di
tltro
택
트럼
##430
##뎌
##1007
##5가
##fun
##feb
##ka
##이터
##서를
##서초구
##가근
##하자는
##해주는
10억
10미국
##공공
시위
시차가
##동기
저소득층
대주
대조
##권이
유력한
우량기업
부추
##보인다
추격
신주
기준임
05년
회사채시장
##와대
##분의
##분할
##률은
나가
중위
50p를
매매수
상승하지
상승전환
##차손
한국형
예상외
##inde
##중소기업
ins
시장에서의
3년국고
달간
국내의
##공장
기대됨
##베니아
##했어
축소의
##080
정책은행은
추가인하
외국인들이
인상조건
인하에도
##순수출
##현대로
##133
것이지만
정부당국의
적합
thir
감소했으며
##ecial
491d
초부터
회복되지
수출국
결정의
반영되는
##lements
독일은
##통안만기
동결에도
누적수익률은
정확한
개별민평1
##active
확인하고
전환되면서
kr38
1q07
반등했다
약화가
약화시키는
생활
##비율비율
원화가
유입을
##경기가
불안감을
##thecredit
시작일을
3q13
비교해보면
##특수채3y
양호할
않았으나
매입금리
지역지역지역
##펀딩
##애폴리스
터키는
음식
##ails
##1y2y3y5y10y20y
루머
두산그룹
##로서의
넘게
된다는
이어가며
하단이
우선주
예금취급
통안0362
##연준연준
cpb
곡선은
상품수출
사이에서
중반에
좀비
##아시아나
통신장비
비농업부분
논의는
되돌리는
이표금리
적정정책금리
##이자부채
참여금액
번의
되었고
##영업부
##용건설
조건이
##제이십
2031
opm
##시건전성
##down
신한금융투자유플러스엘티이제
##증시는
신평사별
image
전제조건
시중금리가
##지점서울특별시서초구
##앆정
접어들면서
흡수합병
wsj
예보상환기금채
출자전환
장단기금리차는
한달간
3년이하3년초과
살아나
리먼사태
##신청지수
##데이터
원활한
50050100150
changsup
##표표표
현저히
주식펀드는
짂행
미니애폴리스
##cription
##엘지디스플레이
괜
밀접한
ism비제조업지수
쫓
지역지역지역지역
3번의
5irs
9002
jhy
mot
mex
mult
soft
##걸
##ᅨᆯ
##preads
##gi
##이란
##이프
##ᅳ럴
##ᆼ글로벌
##리게
##리츠
##의무
##ᅥᆫ수는
##월말
##정에서
##드만
보건
##산후
##만도
08월
스태
연착륙
##보전
국고1년
00달러
06년
서민
1988
##통제
##금융채권
##금융센터
한국에
##개를
가능성에도
2305
기대되고
60bp
동구
##enon
신용불안
fisis
축소되며
물가안정기
##발행만기
글로벌리
##ᆼ가계
만든
발표되었다
은행채은행채
여전채를
역부족
##090
매수심리
단어
환율하락
환율조작국
주식관련자금
##ured
##ural
평균금리
##변수의
12월에는
##민평수익률
특수채3y
특수채특수채특수채
기록하였으며
##천리
##ibold
하향이
보유비중
앞선
##ablack
잔여
국채선물시장은
수급공백
경제지표와
they
##istry
1q10
1q12
자본의
##캣
직원
생존
나타났고
##국고채30년
이전발표치
민간고용
그리스는
3개월물
한편으로는
##274
##2727
5660
##흐름은
주목하고
않았기
악화를
lg실트론
##시키면서
넘겨
예상치예상치예상치
살아이
1998년
변수에
##젂략
01020304050600
##trans
종류별
통안0347
totalweek
관리가
절대금리가
초과하는
##iller
##illion
극심
내외금리차
부양을
gdp갭을
준수
엔화약세
pages
벗어날
##rade
##endar
해운대
##b9b
고민은
단계적으로
##윤여삼
posco
도달할
국내경제가
##펜
경제성장을
방어를
calendar
##인하인하
신호가
잔존만기국고0350
육성
이로써
5000500100015
공식적으로
무난히
##0859095100105110115
역사적으로
대성홀딩스
nahb주택시장지수
빠르지
##지주택공사
2000200400600800
frutigerobl
##101112131415
warn
착공
description
질문에
촉발된
무림페이퍼
보이다가
주택금융공사mbs
분쟁의
##사용될
표준편차
원론적인
caa1
##전월말대비
##시아러시아
유진투자증권
##명과학
아람코
aaa5y국고채10y
error
conditions
extrablack
ticker
뱅크론
유안타증권
##복합물류
영향권
뮤추얼
third
예상치예상치예상치예상치
1천
7통안
8개
bro
ear
tur
까
네이
흑
##브를
##uh
##1동
##크ᄅ
##9y
##http
##q4
##ᅡ량
##스타워
##되겠으나
저해
##대기업
지향
##주도
##원원
##원구
##금의
1504
것것것
하커
##부사채
##재동
##소폭
아아아
00회사
고양시
투자성과
서명
##진핑
##였으나
였다
##계층
소형
##금융자산
3y는
예상함
시장전망
하락룸
##데스
내에서도
은행을
높였다
장내
경제개혁
경제제재
##평동
않으면서
##달구
##연설
##건비
관광
만기액
채권시장에서의
물가하락
##억원이다
소비심리지수
장기부채
포괄
1y캐피탈채
총자본
##134
약세폭이
것이었다
2y캐피탈채
300306
##010012014016
부담요인으로
있었음
##텐
결정하였다
고용자
불확실을
##파산
##170
유동적
보였는데
정확성을
경제지표를
##4008
미래에셋증권
새해
브라질과
매도세를
나타났으나
유입세가
금융시장을
실업자
언급하며
들어간
1조4
비교하면
태도를
규제강화
급등하는
지역개발
중요할
상회하면서
2q16
qe를
shift
000120
금융위기를
물가상승률을
가계부채가
협력
##opt
물량은
경기선행지수는
주장이
##20152015
db금융투자
엔화의
강조하는
나서며
장기화에
이르러
주도하는
조치는
매력적
패턴을
설명했다
외홖
pds21
벗어나는
beige
기반이
##내용은
fy18
걸친
##해보았다
505101520253
제도적
에스케이씨
체결일
체결기업
보합권에
잡아
##두산인프라코어
미국경제에
짧게
균형을
foreign
왜냐
금리읶하
니켈
##손해율
돌아섰다
불거진
##일일일일
투자매력도
사상최고
채권펀드는
기자간담회에서
발간자료
com윤일광
대다수
한반도
selic
##할1a
경제활동참가율
5101520253
##양적완화
##parency
##독일프랑스이탈리아스페인일본호주한국말레이시아태국인도네시아인도중국베트남터키폴란드러시아남아공체코멕시코브라질콜롬비아북미
##024025026027
괜찮
특수채특수채특수채특수채
5한국
a03y
cme
g6
how
rbi
∑4q
##tick
##cil
##529
##pread
##ᆩ재
##이든
이은
##에에
##화환율
##국으로
주에도
##적립
저등급
##대문로
상동
##일빌딩
aa03y
##산을
정제
##소식
##안동
조지
조기지
##선에
00금리
##매물
화두
##와이즈모바일
리포트
서초동
##회사로
등에도
비트코
##경영
소송
한국타이어
한국광물자원공사
예상부도율
3년국고3년
하락시
달서구
의정부
이후부터는
##039
##정책은
만기와
무너
##량을
중국산
그친
rec
변동범위
변동변동변동
자산총계
##2012년
장기적으로는
기업과
종로구
##석탄
##현주
incomefixed
총수익
매수하는
##aglobal
##증빙자료로
양당
양천구
단가계
주식은
3772
##두천
##레인지
있어야
산업매력도
비중축소
국채선물시장에서
내용내용내용
반등하기
마감되었으며
남대문로
문제도
문제와
##산업재
##epfr
잠실
비교할
태도
선호하는
긍정적일
않았으며
충무
##송동
1012345678
##부담은
결국에는
##수준이
인식은
위축으로
##카드사
조선업종
##온시스템
자체를
output
통안0399
30yr
12345678
##패션
경기선행지수가
경기선행지수의
홍천
권한
에스모아
상승국면
##통안채1년
늘어났다
공시자료
매각을
##현대자동차
주체들의
보험사들은
##ansion
macd
연기금주간
없었고
기본적인
##재정위기
리보금리
##신뢰할만한
광주시
근접해
테이블
ls네트웍스
하위등급의
수출입물가
눈치
bis비율
generic
##돌파
##카드채aa0
##제일차유동화전문
당기순
준비가
상업용
##연합회
통안1년과
동원엔터프라이즈
한미약품
신용경색이
국채5y는
##풍빌딩
nh투자증권
모니터링이
대표주관계약
##정상회담
액면
주관사
가늠할
완료기업
2025303540455
simul
maturity
이례적으로
이례적인
연준위원들의
##ufact
소극적
이자소득세는
##일부일부
##같은
대전시
projection
##등급상향등급상향
프랭크법
bench
##32034036
##명기업명기업
60060120180240jan
##우리는우리는
##형김민형김민
1y2y3y4y5y6y7y8y9y
상세내역
rule
볼커룰
보간법으로
분당구
매매수수료
jhyoo
아아아아
왜냐하면
a03y회사채
변동변동변동변동
##증빙자료로사용될
단가계산후
내용내용내용내용
##신뢰할만한자료
1y2y3y4y5y6y7y8y9y10y15y20y30y
2억
2미국
5x
5대
fdi
kake
myr
pp
pick
some
tw
uk
uae
레이
써
##등ᄀ
##8a2
##so
##9ad854c18cea
##d55
##gold
##있다고
##가며
##스타
##되다
믺
미세
##상회
가지는
##세대
전적으로
##006200
거품
상고
##전일
##투자전략
01us
##금리에
1401
##만은
발권
1801
##분명
##edu
04us
04통안1년
서둘러
##ster
위함
달성을
2114
##report
불법
지속을
##icom
##00650064
##격차
##급여
##연말
에반스
판단하기
판단되기
여전사의
##량적
그간의
월보
##257
##했음을
fir
##iles
인하했다
##unlee
기업을
steepening
이벤트로
incomestrategist
##경제연구원
##230533
일본은행이
##007400720065
##007400e
65세
양면
2yr
초중반
##00610075
##0061002e
##00610020004100630072006f006200610074
##00610061006e
방배
copper
요인의
4000
##osition
신용등급별
두번째
##강남구
진행한
심지어
6000
바라보는
kr경제
sk실트론
감안한다면
##0020007a
##정부가
나타났던
보장핛
유입은
##ocument
제공핛
대우증권올레케이티제
스페인은
##국고채국고채
견제
##1001
제외할
카카
##0065006e0065
받지
대응해
매입에
ita
1012317
##커버리지
##800f6
가려
4q13
##006300650073
##00200064006f006b0075006d0065006e0074
##가능인구
국채선물가격은
##됐다고
이유이다
동일등급
##월월월
임금이
##006500730074
환경에서
수준이지만
##006500200068
##00650020006f
##006100740069
a등급의
##최종
중반으로
created
채무불이행
##하이마트
이익이
2002040608010012014016
수정듀레이션
추경에
나섰다
사태의
##고용자수
##00200063007200650061
##00700072
##정기간
##제이차유동화전문
##007200690061
##002000610074
##002000610066
##002000f6
##043e043
5조원으로
##006f00630068
kr606
hjjung
기인한다
방법은
금호아시아나
##elling
##d5b9a
4주전대비
##002000410064006f00620065002000520065006100640065007200200035002e00300020007
비고비고비고
경기모멘텀이
다가온
당연한
##지점서울특별시강남구
##007300690061
##06e8a2
##7684002000410064006f00620065002000500044004600206587
##002000750075
##00200075006c
정금11
##0020007600650072007
개인소비지출
유상증자를
##002e0020004c
##006100720065002e
##jungson
##04100630072006f006200610074
안주영
임시직
24681012
보자면
##0061007300200069
##00650072006e0065
##f5006500730020006400650020006
##상단상단
##07e3059300230533
##000720065
싞뢰핛
##e400720020006
일어나
경영권
##006e00650074
##006e00610020006f
보여준다
룸이
##성근
경기민감업종
한국항공우주산업
헌법
##드림파워
두려움
민자발전
##원도개발공사
비금융기업
##어떠
usedocument
juyeong
eunjungson
optim
##0020006800f8
##두천드림파워
kakeunlee
##d5b9a306
비고비고비고비고
##06e8a2d5b9a306
##07e305930023053306e8a2d5b9a306
4배
au
dxy
even
hw
mt
ptb
ye
뗼
브랜드
##ᆯ아
##쿼
##ᆩ탈
##dec
##dae
##ris
##쌍
##kq
##이번
이관
##하한
##0101
주제
##사유
국영
##수원
1107
##세와
지는
##과도
##권에서
15us
하한
한주만에
02국고5년
##동3
우파
##error
미국에서
미국보다
##미지급
통보
그림33
1803
##구제
##닛
##려면
##sth
한국을
경기소비재
동햐
쟁
결정과
40p를
달러는
##연기금
##베스
마다
획
##국고3y
recovery
3311
##unn
##물가는
##메디
주간전망
배정
표표표표
step
##현화
총리는
10y10y10y
낮기
##미국일본
##졌고
2y2y2y
회복할
올해부터
##더더
특수채5년
가격상승
한은도
재정2012
##배럴
##10년초과
2월에는
##기준기준
##학동
제조업과
전환됨
부채규모
컸음
우리카드
과거대비
##자금을
##240
##243
엔씨소프트
eu의
유효하나
중앙일보
악영향을
언급해
간격
시작해
기대감도
효과와
전주페이퍼
중앙은행에
pmi가
##이었기
급등하면서
매입규모
##혜영
북핵
##488
##위험요인
2q19
의미는
내수부진
달러화지수
중장기적으로는
shock
##yper
알고
유출되었다
##메리트를
작년말
##팬오션
##2008년
mbs의
##최조
##20132013
주식형펀드
은행권에
영역을
담당자가
##305f
막바지
##ansas
서비스업지수
##예상보다
##아이슬란드
되어야
유사하게
애플
4048
역할이
프리미엄이
확률은
놓여
##006007008009001
2002040608010012007
잔존만기국고0400
리라화
근본적
프로그램을
##02004006008001
재무장관회의
활발하게
씨제이헬로비전
additional
전문가
불안정한
##과거의
102030405060708
##아프리카아프리카
힌트
미결제약정
공산이
bmps
##중남미중남미
##오세아니아오세아니아
##기타유럽기타유럽
##동남아시아동남아시아
##동북아시아동북아시아
##outlookoutlook
숙박
농축수산물
##완충자본
##변경전변경전
현대종합특수강
##변경후변경후
##녕하
공업제품
35791113jan
베일인
모른다
##0170190210230
legacy
투자의사결정은
##ᅳ럴시티
500050010001500
benchmark
뗼epfr
##daebit
10y10y10y10y
2y2y2y2y
4위
7만명
brazil
near
ph
p씩
v2
혹
##ᅩᆼ급
##414
##혼
##for
##a0
##maps
##lf
##ᆼ곡
##리테일
10p에서
##삭
##사동
수순
12기준금리
##상공
##상호
11미국
가결
대안이
전부
지위를
##곽
##치과거
보성
그럴
##동지점서울특별시
##only
미국산
000us
03m
##승인
투자손익
중점을
##진단
##은행들의
소기업
한국판
##italy
3년간
3년초과
하락압력을
재조정
2345
2321
##당기
##모형
##벤치마크
신용채권의
통화신용
##eel
##eeps
귺
2017e
##088
변동을
등급과
자산유입
장기영역
##생명과학
##현물
때문일
계기가
##하였지만
##esl
##esin
결과이다
##aguide
##165
완화의
12월말
12월부터
해외부문
##deutsche
count
고용을
반영되지
지표들은
입주
fomc와
대우조선
5월말
irs3
동결의
관련해서
강화는
강화와
##using
매도에
감안했을
##교육
손상
못하면
##건설투자
재무부담이
상향이
기조와
##753
언급했던
##ofr
7y10y
이렇
활기를
선호에
부각시킬
##2848
급등은
입찰에서는
공급을
100105
버터
완만하나마
키프러스
돌려
##케이캐피탈
하이투자증권
최대치
##색은
##andcont
플레이
금리상승은
작년에
자체에
저금리시대
저하가
데다
되돌아
##지점경남
##00200300400500600
##들에게는
현금성자산
한계를
deu
일자일자일자
##현대건설
##rend
000억원의
연은총재
데이터를
금리하락폭
끊
50050100150200250300
신용평가사들의
동부팜한농
1936
지준적
도달한
이용하여
상승압력은
식으로
에스케이인천석유화학
대책을
좁아
##9501
방법을
##선진국신흥국
보고서를
##0180200220
의존도
디플레이션갭
발행량은
잠재성장률을
사회보장
특징주
금융그룹
우리투자증권올레케이티제
여신금융채
1회에
사모펀드
익스포저
푸른
pimco
명분이
느껴
##광역시서구
sovereignglobal
명확한
경기시각이
어찌
격차는
##라이드
##울산지점울산광역시
보여주었다
##에스케이이엔에스
4d6963726f736f667420576f7264202d20313
어려우나
##경계
연방금리선물
eu정상회의
##예치금
엠파이어스테이트
facility
##140015001600
전형적인
dataguide
상고하
##reporting
##andcontin
일자일자일자일자
0개
1단계
3위
4irs
9fax
tight
스리랑카
##랙
##즈를
##ᆷ이
##글
##803
##켜
##콘
##569
##page
##gn
##hal
##nb
##이차유동화
이가근
##자신의
##01200
##01400
##한신
주류
시진핑
기사
##월에
##정당
##도곡
1213
11y
##전반
##전병하
보지
얶
정현주
경착륙
0311
18미국
투자처
04통안2년
스프레드갭
##15년
##alle
##옆
25년
##lors
여의
순차적으로
비전
가능함
외생
inr
내지는
경기대응
##ater
##력의
장투
장애
모건
불라드
1009
약해질
##관점
안의
안고
마음
##ᅳᆯ로베니아
##mcd
그침
##피코
rein
reits
글로벌금리
##등에
유지되었다
발표문
은행채에
##check
##esign
10월부터
##초장기
자금수요
##ential
감소했으나
이상만
##ᆼ금유
2019f
메시
4월부터
coco
coverage
could
둔화세
ecb회의
수급과
아니므로
속에서도
신뢰를
가계소득
완전성이나
##ivatives
기조적
파업
전체적으로는
변경에
시작되는
##씨제이
그리스에
아직도
지원가능성을
work
탠트럼
선호도
주목하며
포함하여
9001
##광석
경계할
notes
섹터에
낙폭은
실질적
##7656
시행할
위기는
shiller
긴축이
##비중을
1997
이어갔으나
pdfhttp
펀더멘털의
통안0368
확보가
확보할
접근해야
##이었다는
byc
단행된
먹
##ides
preset
prelim
##201520162017
##업체의
넥센
dev
용선
해석된다
북한이
지분율
우호적일
##국면에
신중하게
##b9b5
##경로에
크레딧스프레드는
leverage
##inding
단순매입
활성화를
aaa3y회사채
참가율
웅진그룹
엘지씨엔에스
회계연도
3주차
표현을
능력이
##erpre
##한은기준금리
##누리
싶어
01020301
##10111213
이자부채와
dgb캐피탈
펼쳐
암시
##유형유형
한국투자금융지주
##apped
목표수준에서
어려우며
보유기간별
holdings
경영개선
meas
춘절
득표
전약후강의
##48576
슬라이드
뛰어넘는
발행건수는
재고순환지표
taeh
##2333435
용산프로젝트
기업경기실사지수
중중중중
##109110111
네이버
preliminary
3기준금리
4미국
7한국
mee
n5
win
æ1
프리
##ᅣ트
##eur
##8c5
##d9
##m2
##morgan
##gy
##ving
이사회
##자들
##시에는
##기의
##스페이
##한한
##삭스
##대통령
전역
##제칠차유동화전문
##전북
보니
1414
02swap
어음
08us
우상향
부국
금정위
신계약
예스코
투자확대
투자기관들의
##aasia
##진입
##트비아
##단순
노딜
대한유화
국채만기
한국캐피탈
위로
ing
3년회사채bbb
2140
##refer
20014
경제회복
증가에도
달러약세
크레딧금리
영원
##건축
때의
때도
만기보유
신용도가
##07ac
중국발
지난번
357911
##081
##ilt
수익성을
오세아니아
추가적
5511
##방동
##순매도
2018f
##rofil
발표와
발표하면서
적이
향해
##ags
##ecop
수출을
규모다
반영하기
재정증권
보유채권의
합헌
누적수익률
성장률의
진행중인
spending
cht
##기업들의
##하다면
건설사의
##ortg
##248
상향된
##산업은행
말해
악재의
일부를
생산이
##금액은
들어갈
전주에
한화손해보험
모두가
시점의
3개월간
나타내며
##2891
##케팅
##케피코
900억
##cod
uncertainty
##58b
사업기반
섹터는
##국내경제
##북한
##독일독일
하이닉스
jpn
계열사의
##293
##ober
신한금융
까지는
##3035404550556065
도입을
펀더멘털은
##외국인외국인
이동할
데에
hy등급
상품수지
##최대
##eze
##하이스코
국채금리의
은행권이
##대한민국
초반부터
가정하면
해석이
시각은
##생명빌딩
##국면을
힘입은
떨어지고
자극하는
5111
횡보세를
이루어지지
싞용평가
##c5f
되돌림을
결론은
순환적
fy14
강보합세
분명하다
##e5b9
루피화
atlant
들고
방어하기
resort
유로지역의
빨라지
금통위원들의
공격적으로
##0859095100
paralle
요소가
##손실을
잔존만기국고03
##제일차
이르면
##month
상업순포지션
낮아졌고
상관관계를
성격의
1001020304050607
autor
commerce
##파이낸싱
국제금융시장의
벌어진
국고채3년물과
하였으나
geop
예년보다
소요될
회수율
##perform
activity
엘에스엠트론
모형으로
detect
##sent
flattener
kr3105
##피앤비
과감한
margin
샤리아
##ᅳ랙시
신영증권
순이자마진
extended
동양그룹
##prologue
시기상조
##현대로템
byc빌딩
parallel
1crs
3억
7중국
9미국
b1
bar
bund
binding
ds
doth
downsampl
dsc
deze
fa
geb
ky
kwal
kunn
nld
nbg
sve
tags
ucr
끌
브랙시
##무자
##플로
##괴
##30065006e
##300720065
##306f
##3check
##4f5c6210
##40069006f006e0073
##400650020006f
##e0020004
##ubs
##uite
##b7528
##bars
##tot
##1006e
##1ach
##70065
##7c0020c791c13
##8fd
##8c0020c791c13
##차로
##cii
##c74
##cb9
##c124
##c788
##c00200050004400460020bb38c11
##cwar
##c305f
##jdf
##50065
##50069006e
##pct
##paces
##paged
##9006d
##9002000760065007200730069006f006e
##900200064006f00630075006d0065006e00740069
##f0073
##flat
##f005
##d0064006f006b0075006d0065006e0074
##d2891
##a00650075
##rgb
##rgbprofile
##oinde
##lay
##gri
##ho
##hyper
##kan
##q1
##xobjects
##0020304
##0006e
##002030
1048576
##01800
##스가
주었다
##사와
1108
갇
전세
##00620065
##006a0061
##투자투자
유니
한투
##산식
부시
연립
발효
##미널
##우호
신선식품
회사채로
##007900
그림35
예의
##edmarks
##editing
##aakt
나이지리아
##진빌딩
일간
##였고
50억
##06e5
여의도동
강하지
노루
##itds
##ittf
예상이
##bbe5b9
##ates
##atibility
##seic
##setb
##ergray
##관과
##05d5
하나금융
##006500200070007
##0065002000640069
증가폭
##공영
확대시킬
##매수세
##ename
만기구조
만기별로
통화가
53년
##25efa7acb
과매도
성장전망
##0883
##08금융센터
##08c305f
reverse
글로벌채권
##compli
소비의
##201201
개선도
단기성자금
3232
##imedia
##139
##13000
##130a
##006f00200065
##006f00690064
##00200068
##entype
##007400650073
##0074002000760065007200730069006f006e
분해
##ectb
##ec0020
##16bit
올해올해올해
analyst이정준02
##ae20
##006e006e
##006e00200069
##006e00650073002000690020004100630072006f00620061007400200065006c006c0065007200200
##006e007300740069006c006c0069006e0067
##atepages
##ateoverprint
메모
##00730020004100630072006f006200610074002c
##007300200075006c
coated
##0069002000700065
##0069007200200064006f00630075006d0065006e0074006f0073
##0069002000730075
##otatepages
6408금융센터
##182
##180020
##1700
조정되었다
##leedbox
##leedmarks
독일채
asread
ascii
##0064006500720020006
##006400750074
종목들의
##eb306f
##완만한
##02000300
##창동
제조업의
##setfonts
##setpct
수급을
##acc6
확인시켜
##0072002e
전환하면서
chs
부채시
부채상환
부채총계
부채유동자산
##대우건설
##30b9
##30d5
##30f3
##00750069
##007500200076
##axencode
##300100
##300f500650073
##00200079
##78c1
201020102010
track
보장성
유입에
소폭이나마
##항만
##ocinfo
##웠던
에서의
##33002
##33068304c3067304d3
이탈리아와
외인이
시작하는
시작했으나
실제발행금액
##ofilt
##melements
##002000450072007300740065006c006c
moment
##epsf
##006500720077
##0065006e0065006e
##0065006e002c
##0065006e00640065006e
##0065006e00650020006b
##0065006e00200076006f006e
##0065006e0020007a
##0065006e006100720065002e
##006d00200064
##006d0069006c006c
상반기말
##ad88
##101520251y
##0070006e
실적개선
emitds
레벨로
충돌
악화되는
##1d569
##colors
unemployment
##egimages
##58b3
worden
##800e400720020006
suo
##002e00200053
##df25efa7acb
##erspreads
##5964
##ressp
5년물의
##00200050007
##기간기간
##0063006500200065
##0063006300650073
##0065007200200061
##0020005000440046002d0044006f006b0075006d0065006e0074
##0020005000440046002030
##주식수
##002000640065006e0065006e
##6958b
##ypage
##allfonts
읶핚
##andbg
상단에
##7958b3
##올림픽
집중되고
금리상승으로
##그플레이션
##85encode
##psxobjects
##umbn
##0065006e0074002000
##56006500720077
##0075006d002000450072007300740065006c006c
##74f5c6210
재료는
데자
addc
addb
addpage
매매현화
##8306e
포트폴리오의
##006500730020006f0070007
##0065007300200064006f00630075006d0065006e00740073
##0065007300200070006f00730074006500720069006f007200650073002e
##0065007300650020004
##opicom
##oposition
##opentype
환경에
크레딧물은
##006500200069006e
##006500200069006d
##0020c774
##006b002000640069
##006b007300690061
##0061007400610020004100630072006f006200610074
creatives
##007600e4
##angu
alway
##확대확대
##00630072006f0062006100740020304
##30553
##30533068304c3067304d3
enu
endpage
encod
##006700200069
##00670065006e0020006d
##00670020006e0079
##00670065006e0020007a
##006c006c006e0069006e0067
##006c006c0075006e
##006c006c00610020006a0061
##eringintent
고정비
##00740065006a0061
##007400650020005000440046002d0044006f006b0075006d0065006e0074
##00e700
##720069007200200064006f00630075006d0065006e0074006f0073
엔화에
##현대산업개발
검토하고
feffc77
feff9ad854c18cea
##006f006e006f00200065
##cprofil
나서지
##antpdf
시나리오는
050sw
##overrid
연장될
##0020004100630072006f0062006100740020006f00630068
##0020004100630072006f00620061007400200075006e0064
##00200063006f006d
##00200063007200690061
##00200063006500730020006f0070007
##스런
##06f00670020006e0079
colorimagedict
colorcon
colorimageminresolution
coloracsimagedict
colorsettings
colorimagefilter
colorimagedepth
colorimageminresolutionpolicy
colorimagedownsampletype
colorimageresolution
colorimagedownsamplethreshold
colorimagemindownsampledepth
colorimageautofilterstrategy
협상을
pdfxble
pdfxreg
pdfxnot
pdfx3check
pdfx1ach
pdfxsetb
pdfxcompli
##00700070006e
치열
견인하고
##f6e5
##영업팀
가치는
폐기
formelements
##002000410064006f0062006500200050004400460020002
##002000410064006f006200650020005000440046002d0044006f006b0075006d0065006e0074
##002000410064006f00620065002000500044004600200070006f0075
##00200076006f00690064
grayimagedict
grayimageminresolution
grayacsimagedict
grayimagefilter
grayimagedepth
grayimageminresolutionpolicy
grayimagedownsampletype
grayimageresolution
grayimagedownsamplethreshold
grayimagemindownsampledepth
grayimageautofilterstrategy
##ea007400720065
compress
compatibility
compressp
유효경쟁률은
##0072006900610064006f0073
##0072006900650075
기관투자자들의
##002000610069006e
##0020006100730065
##0020006100700065
##00200061006200
##0020006100200063007200690061
##002000410064006f00620065002000520065006100640065007200200035002e00300020
##002000410064006f00620065002000520065006100640065007200200035002e0030003a
##63002
교역여건
##41c00200050004400460020bb38c11
##4100630072006f0062006100740020304
##0073007400e4
##002000e9
##00200065006e00200069
##00720020006300720065
##fa529
높아졌고
subsetfonts
##306b4
##ernames
내려갈
##0020006f0020004100630072006f00620061007400200065
##0020006f00750076
##0020006f007000720065007400740065
##0020006f002000410064006f00620065002000520065006100640065007200200035002e003000200065
##ignores
##51fa529
hoger
##월간채권투자
이어졌으며
인구통계국
##0069006e00200064006500200063
##00200073006b006100700061
##002000730065006e006100720065002e
##002000730065007200200061
언론사
##006f0073002000500044004600200063
##006f007300200063006f006d
경쟁률을
##00660066
##b807ac
monoimagedict
monoimageminresolution
monoimagefilter
monoimagedepth
monoimageminresolutionpolicy
monoimagedownsampletype
monoimageresolution
monoimagedownsamplethreshold
##crb
calgray
calcmyk
calrgbprofile
##hyun
##tpolicy
##c0c1
##c0acc6
generate
##0020006400650020006800e400720020006
##f5df25efa7acb
parseic
##bleed
import
gemaakt
##0061006c0069006400610064
##jpegimages
##0061006e002000f6
##0061006e00730020004100630072006f006200610074002c
##0073007300610073
##00730073006500720065
##00730073006500200069006e
##00730073006f006e006f00200065
##b5b2c8b2e4002e
##00e400690074
##00e40079007400e4
##00e40020006100730065
ig등급
목적이
고용시장이
##0068006500720020006
##d530a
indesign
##lated
##문제가
##여부에
##ruik
##rukk
##93002
02040608010012014016015
##007a0069006f006e
##007a006100720065
##007a00200063006500730020006f0070007
##name
preserveoverprint
preservehal
preserveflat
preserveediting
preserveopicom
##002000700072006f
includeprofil
includeinter
includebook
includegu
includelay
includehyper
##colorbars
checkcompliance
##c778c1
##00790020006b00760061006c0069007400650074
##2535f005
##0020006b0061006e002000f6
feff0056006500720077
난항
##c67656
##regmarks
##00200070006f00640065006d
##00200070006f00730073006f006e006f00200065
##00730074006100200063006f006e006600690067007500720061
##007300740061007a0069006f006e
##oneinfo
autofilter
autofilt
autoposition
stx조선해양
##bitmaps
이란의
##00730069002000710075
##0073006900f3006e
##0073006900760065
##00200064006f00630075006d0065006e0074006f0073002000500044004600200063
years
##0069006c006c00610020006a0061
##0069006c006c00200073006b006100700061
##002000710075006500730074
##f7f752830573
##bff9
##00f600630068
##00f6006e006e
##00f600660066
##00200063006f006e0020004100630072006f00620061007400200065
##00200063006f006e0020004100630072006f006200610074002c
##006d0070007200650073006900f3006e
apply
##d7f6e5
##ctioninfo
##00690074006f
##006900740020004100630072006f00620061007400200075006e0064
##0069007400200076006f00690064
##00630068002000730065006e006100720065002e
보완자본
cropgrayimages
cropmonoimages
cropcolorimages
cropimagest
feff0041006e
instelling
##002e002000450072007300740065006c006c
##002e0020004400650020006f
##002e0020004f0073
##002000500044004600200063007200e9
##0020005000440046002d0064006f006b0075006d0065006e00740065006e00650020006b
##0020005000440046002d0064006f006b0075006d0065006e00740069007400200076006f00690064
feff005500740069006c006900730065
feff005500740069006c00690063006500200065
타게팅
##cdscdscdscds
##00610072006500200064006f00630075006d0065006e00740069
##006e0064007300740069006c006c0069006e0067
##006e00640020006400650020006800e400720020006
골드만
##printing
##0072007a00650075
예치금리
당국이
ccittf
가이드라인
addcolorbars
addregmarks
##c4d
##c4f8
생명보험사
금리변화폭
srgbprofile
##c2180020
##c2b5b2c8b2e4002e
##mykvalu
settings
setdistillerparams
setpaged
##0d488
##0020006e00e400690074
##00720074006f007300200063006f006d
##002000520065006100640065007200200035002e00300020006f00670020006e0079
아마존
##04f30533068304c3067304d3
useobject
useprologue
carry
##0065007200640065006e
##contents
##control
##신한금융지주
##007400740065002000410064006f006200650020005000440046002d0064006f006b0075006d0065006e0074
##007300740065006c006c0075006e
##00200070006500750076
##0020007000610072006100200063007200650061
정치권의
맞추기
createjob
createjdf
preservedic
preserveeps
preservecop
##cb294
##fontpolicy
##a2d7f6e5
##imboxtomediabox
##00640065006e00200061006200
##40020c124
##40020c0acc6
##40020c2180020
##크레딧금리크레딧금리
embedjob
embedallfonts
embedopentype
##66f8306e
##0065002000650073007300610073
##0020004100630072006f0062006100740020bc0f
##002000e50020006f0070007
##0020007100750061006c0069007400e9
##0020007100750061006c0069006400610064
##0020007100750061006c0069007400e
omitplacedpdf
omitplacedeps
omitplacedbitmaps
downsamplegrayimages
downsamplemonoimages
downsample16bit
##002000760065007200730069006f006e0069002000730075
antialiasgrayimages
antialiasmonoimages
antialiascolorimages
##002000410064006f00620065002000520065006100640065007200200035002e003000204ee5964
##ace0d488
##0061006d0069
##76840020005000440046002065874ef
mediumresolution
전격적인
##links
defaultrend
##ftoneinfo
##ifier
##a9d55
팽팽
목표수준에
프라임
convertimagest
convertcolors
senior
detectb
풀무원식품
##0410064006f00620065002000520065006100640065007200200035002e003000200065
##90194e9b8
includenon
includesl
##연준의연준의
##0020006c0061
##0020006c0075006f
maxsub
defic
##촉진
##cmykhandling
##00740075006b007300690061
##0075006e0020006c0075006f
##00610064006f007300200063006f006e0020004100630072006f006200610074002c
allowtrans
allowpsxobjects
##identifier
voor
##007200e9006500720020006400650073
##00650020006b00f6006e006e
##002000410064006f0062006500200050004400460020658766f8306e
##00200050004400460020006300720065006100740069
##0020005000440046002000630072006500610064006f007300200063006f006e0020004100630072006f006200610074002c
feff005500740069006c0069007a007a006100720065
feff005500740069006c0069007a0065002000650073007300610073
##002000740069006c002000610074
##002000740069006c002000e50020006f0070007
전강후약의
flattenerpre
destinationprofil
destinationprofileselector
##9006e0073007400e4
##rimboxoffset
##rimboxerror
##edboxtot
##073002000410064006f00620065002000520065006100640065007200200035002e003000204ee5964
##007400e90072006900650075
##0075006f006400750074
##00650072007400690067
##006500720074007300200064
##0065006e0020006d006900740020004100630072006f00620061007400200075006e0064
##embedfontpolicy
##0070006f007300740061007a0069006f006e
##37052373
encodegrayimages
encodemonoimages
feff4f7f75288fd
feff4f7f752890194e9b8
pdfxtrapped
pdfxtrimboxtomediabox
##00200076006f006e002000640065006e0065006e
##0020006100760020006800f8
##0020006100760061007400610020004100630072006f006200610074
##007000720065007400740065006400650020005000440046002d0064006f006b0075006d0065006e0074
##0061006e002000e50062
##0061006e002000e50070006e
##002000410064006f00620065002000520065006100640065007200200035002e003000200065002000760065007200730069006f006e0069002000730075
##002000410064006f00620065002000520065006100640065007200200035002e00300020006f0064006500720020006
##002000410064006f00620065002000520065006100640065007200200035002e00300020006f00630068002000730065006e006100720065002e
##00200064006f00630075006d0065006e00740073002000410064006f00620065002000500044004600200070006f0075
##00640065006d006d0069006c006c
##006400650020005000440046002d0064006f006b0075006d0065006e00740020006b0061006e002000f6
feff004200720075006b002000640069
feff004200720075006700200069
pdfxoutputintentprofile
pdfxoutputintentprofileselector
pdfxoutputconditionidentifier
jpeg2000grayimagedict
jpeg2000grayacsimagedict
jpeg2000colorimagedict
jpeg2000coloracsimagedict
##00740073006b00720069006600740020006100760020006800f8
##00650073002000690020004100630072006f00620061007400200065006c006c00650072002000410064006f00620065002000520065006100640065007200200035002e003000200065
##002000520065006100640065007200200035002e0030002000650074002000760065007200730069006f006e
##006b006100700061006400650020005000440046002d0064006f006b0075006d0065006e00740020006b0061006e002000f6
##c774c0c1
##002000530069006500200068
##0020005300690065002000640069
##30d730ea
untaggedrgb
untaggedcmykhandling
##b2c8b2e4002e0020c774
parsedsccommentsford
##efa7acb7684002000410064006f00620065002000500044004600206587
##94e9b8bbe5b9
##00200063006f006e00660069006700750072006100e700
##00260a853ef4ee54f7f75280020004100630072006f0062006100740020548c002000410064006f00620065002000520065006100640065007200200035002e003000204ee553ca66f49ad87248672c67656
##00260a853ef4ee54f7f75280020004100630072006f0062006100740020548c002000410064006f00620065002000520065006100640065007200200035002e003000204ee553ca66f49ad87248672c4f8
##샷
##evice
##sembed
##versionstrategy
##a30883
##lends
##6006f0072006d0061
##d3067958b3
##00740065006e002e002000450072007300740065006c006c
##00640073006b007200690076006e0069006e0067
##006c006c00650072002000730065006e
##c815c74
##006500720020006b0061006e002000e50062
##0063006900f3006e0020007000610072006100200063007200650061
##21b5efa768400200050004400460020658768633002
##c5d0c11c0020c5f
startpage
##roughjpegimages
passth
limited
세전이익순이익
##ᆼ국내금리
팩터
##curves
grad
##007700650072007400690067
opened
maken
##은행해외은행해외
##렉트릭
##국가해외국가해외
##해외크레딧금리해외크레딧금리
##002c0020006b0075006e0020006c0075006f
##1b41c00200050004400460020bb38c11
othernames
##진흥공단
lockdistillerparams
채권수익률산식
##00610072006e00610020006f
##555f5df25efa7acb
##002000770065007200640065006e
롤링효과에
유동부채부채비율
transferfun
발표일정은
##00e9007300200070006500750076
##002700410064006f00620065
##ropmarks
neverembed
cannotembedfontpolicy
##053006b006100700061006400650020005000440046002d0064006f006b0075006d0065006e00740020006b0061006e002000f6
##memory
feff004b00e40079007400e4
##00720074006900200063006f006e0020004100630072006f00620061007400200065
##430eb306f
imagememory
multimedia
##istryname
pagesize
warnandcontin
errorcontrol
##options
##ticket
##preadoverrid
simulateoverprint
##00610061006e0020006100760061007400610020004100630072006f006200610074
##0065006e0065002000740069006c002000e50020006f0070007
##800f60068006500720020006
##007000720069006d
##0020006100660069006e00200064006500200063
##006f00630068007700650072007400690067
##002000410064006f00620065002000520065006100640065007200200035002e003000200079002000760065007200730069006f006e
##00200075007500640065006d006d0069006c006c
##0020007600650072007300f500650073
##002e0020004c0065007300200064006f00630075006d0065006e00740073
##04100630072006f006200610074002000520065006100640065007200200035002e00300020006f00670020006e0079
##00610073002000690020004100630072006f0062006100740020006f00630068
##00650072006e0065002000740069006c002000610074
##f50065007300200064006500200066006f0072006d0061
##000720065007400740065002000410064006f006200650020005000440046002d0064006f006b0075006d0065006e0074
##006e00650074002000770065007200640065006e
usedocumentbleed
optimize
##07e305930023053306e8a2d5b9a30674f5c6210
hwresolution
##esincomments
##oframes
상고하저
##reportinglevel
##idesgri
presetselector
meeting
##8c5ec0020
autorotatepages
geopend
detectcurves
flattenerignores
dothumbn
downsamplecolorimages
dscreportinglevel
gebruik
kwalite
kunnen
ucrandbg
##4f5c6210306b4
##40069006f006e00730020006100660069006e00200064006500200063
##e0020004900200064006f00630075006d0065006e00740069
##b7528002000410064006f0062006500200050004400460020658766f8306e
##7006500f600660066
##7c0020c791c131d569
##8c0020c791c131b41c00200050004400460020bb38c11
##cb97c0020c791c131d569
##c788c2b5b2c8b2e4002e
##cwarnings
##5006500640065006e00200061006200
##50069006e007300740065006c006c0075006e
##d0064006f006b0075006d0065006e007400740065006a0061
##oindexed
##0062006500720074006f007300200063006f006d
##007900f6
##ergrayimages
##0065002000700075006500640065006e00200061006200
##08c305f0020005000440046002030
##130a430eb306f
올해올해올해올해
##006e00650073002000690020004100630072006f00620061007400200065006c006c006500720020004100630072006f006200610074002000520065006100640065007200200035002e00300020006f00670020006e0079
##006e007300740069006c006c0069006e00670065006e0065002000740069006c002000e50020006f0070007
##007300200075006c007400e90072006900650075
##006900200070006500720020006300720065
##leedboxtomediabox
asreaderspreads
ascii85encode
##30f330
##0075002000760069006c006c00200073006b006100700061
##3001004100630072006f0062006100740020304
##epsfiles
##0065006e002c00200076006f006e002000640065006e0065006e
##0065006e00640065006e0020005300690065002000640069
##0065006e00200076006f006e002000410064006f006200650020005000440046002d0044006f006b0075006d0065006e0074
##006d002000640075002000760069006c006c00200073006b006100700061
[...]
